'<pad>'
'<EOS>'
', _'
'._'
'the_'
'_'
'in_'
'of_'
'and_'
'die_'
'to_'
'der_'
'und_'
'a_'
's_'
'-_'
'is_'
'that_'
'zu_'
'for_'
'den_'
'von_'
'n_'
'on_'
'ist_'
'an_'
'für_'
'. _'
'be_'
'en_'
'The_'
'with_'
'es_'
'are_'
'das_'
'as_'
'e_'
'des_'
'auf_'
'mit_'
'it_'
'eine_'
'dass_'
'nicht_'
'im_'
'I_'
'not_'
'have_'
'by_'
'this_'
' (_'
' – _'
'sich_'
'was_'
'ein_'
'werden_'
'Die_'
'will_'
'from_'
'we_'
'dem_'
'’_'
't_'
': _'
'at_'
'Sie_'
'or_'
'which_'
'has_'
'er_'
'als_'
'auch_'
'wir_'
'you_'
'In_'
'r_'
'um_'
'sind_'
'wird_'
') _'
'so_'
'ing_'
'sie_'
'can_'
'all_'
''_'
' - _'
'einer_'
'hat_'
'wie_'
'also_'
'their_'
'haben_'
'd_'
'European_'
'oder_'
'would_'
'its_'
'ed_'
'more_'
'über_'
'but_'
'einen_'
'?_'
'ich_'
'zur_'
'y_'
'our_'
'aus_'
'they_'
'bei_'
'Das_'
'one_'
'been_'
'; _'
'nur_'
'Union_'
'It_'
'should_'
'einem_'
'EU_'
'nach_'
'durch_'
'/_'
'diese_'
'können_'
'This_'
'noch_'
'zum_'
'other_'
'only_'
'ung_'
'there_'
'de_'
' , _'
'kann_'
'do_'
'am_'
'countries_'
'1_'
'dieser_'
'war_'
'o_'
'than_'
'new_'
'We_'
'your_'
'Europe_'
'Der_'
'must_'
'vor_'
'Mr_'
'no_'
'were_'
'wenn_'
'2_'
'Ich_'
'wurde_'
'man_'
'like_'
'US_'
'- _'
' "_'
'us_'
'about_'
'm_'
'President_'
'Es_'
'time_'
'aber_'
'sein_'
'these_'
'te_'
'if_'
'who_'
'up_'
'very_'
'Hotel_'
'uns_'
' ._'
'world_'
'Commission_'
'such_'
'müssen_'
'Wir_'
'when_'
'But_'
'ten_'
'A_'
'people_'
'into_'
' “_'
'ng_'
'China_'
'mehr_'
'ihre_'
'3_'
'out_'
'5_'
'his_'
'now_'
'most_'
'some_'
'what_'
'Kommission_'
'sehr_'
'many_'
'!_'
'l_'
')._'
'i_'
'he_'
'% _'
'any_'
' „_'
'had_'
',_'
'States_'
'eines_'
'), _'
'them_'
'4_'
'Herr_'
'well_'
'" _'
'economic_'
'need_'
'diesem_'
'unter_'
'years_'
'zwischen_'
'between_'
'political_'
'first_'
'alle_'
'hotel_'
'even_'
'bis_'
'ly_'
'policy_'
'keine_'
'muss_'
'anderen_'
'make_'
'use_'
'two_'
'over_'
'could_'
'Parliament_'
'my_'
'work_'
'may_'
'way_'
'gegen_'
'important_'
'0_'
'gibt_'
'Europäischen_'
'Europa_'
'Council_'
'Präsident_'
'report_'
'system_'
'those_'
'because_'
'If_'
'just_'
'support_'
'seine_'
'vom_'
'sowie_'
'k_'
'dieses_'
'country_'
'year_'
'Wenn_'
'much_'
'government_'
'after_'
'al_'
'Member_'
'made_'
'möchte_'
'take_'
'market_'
'h_'
'immer_'
'“ _'
' _'
'able_'
'being_'
'public_'
'Welt_'
'ungen_'
'sondern_'
'dies_'
'Zeit_'
'' _'
'” _'
'long_'
'own_'
'Menschen_'
'Jahren_'
'(_'
'international_'
'da_'
'where_'
'ihrer_'
'right_'
'good_'
'diesen_'
'andere_'
'wurden_'
'USA_'
'how_'
'financial_'
'For_'
'g_'
':_'
'Diese_'
'Jahr_'
'As_'
'Länder_'
'both_'
'part_'
'z_'
'unsere_'
'same_'
'information_'
'against_'
'last_'
're_'
'dann_'
'Bericht_'
'through_'
'global_'
'sollte_'
'then_'
'hier_'
'6_'
'jedoch_'
'würde_'
'There_'
'high_'
'damit_'
'Im_'
'heute_'
'end_'
'seiner_'
'10_'
'does_'
'S_'
'Und_'
'growth_'
'United_'
'under_'
'social_'
'7_'
'too_'
'national_'
'8_'
'order_'
'ohne_'
'see_'
'example_'
'Mitgliedstaaten_'
'neue_'
'Parlament_'
'still_'
'free_'
'Land_'
'europäischen_'
'me_'
'That_'
'rights_'
'le_'
'number_'
'könnte_'
'place_'
'development_'
'area_'
'Entwicklung_'
'And_'
'within_'
'her_'
'’ _'
'power_'
'neuen_'
'bereits_'
'before_'
'ion_'
'course_'
'ation_'
'Frage_'
'room_'
'point_'
'fact_'
'Ein_'
'selbst_'
'denen_'
'used_'
'wieder_'
'la_'
'while_'
'sollten_'
'possible_'
'far_'
'20_'
'economy_'
'want_'
'Europäische_'
' [[_'
'future_'
'zwei_'
'dazu_'
'less_'
'You_'
'Regierung_'
'without_'
'say_'
'c_'
'already_'
'set_'
'great_'
'Aber_'
'9_'
' | _'
'während_'
'! _'
'large_'
'human_'
'here_'
'So_'
'weil_'
'jetzt_'
'ihren_'
'ihr_'
'today_'
'30_'
'wäre_'
'Lage_'
'liegt_'
'therefore_'
'machen_'
'view_'
'cannot_'
'believe_'
'wo_'
'se_'
'problem_'
'since_'
' '_'
'state_'
'go_'
'down_'
'viele_'
'crisis_'
'Ländern_'
'u_'
'per_'
'three_'
'services_'
'find_'
'et_'
'America_'
'few_'
'Unternehmen_'
'000_'
'..._'
'help_'
'viel_'
'issue_'
'including_'
'available_'
'15_'
'trade_'
'process_'
'Maßnahmen_'
'case_'
'level_'
'dafür_'
'Eine_'
'seit_'
'mich_'
'know_'
'geht_'
'einige_'
'darauf_'
'Jahre_'
'st_'
'means_'
'denn_'
'different_'
'change_'
'areas_'
'00_'
'next_'
'city_'
'allem_'
'Ihnen_'
'E_'
'rs_'
'politischen_'
'get_'
'finden_'
'ers_'
'When_'
'Staaten_'
'Politik_'
'Mit_'
'real_'
'problems_'
'C_'
'health_'
'habe_'
'clear_'
'better_'
'best_'
'making_'
'lassen_'
'Frau_'
'Dies_'
'B_'
'however_'
'why_'
'gut_'
'allen_'
'energy_'
'D_'
'unserer_'
'become_'
'politische_'
'ganz_'
'el_'
'during_'
'They_'
'service_'
'access_'
'x_'
'waren_'
'stellen_'
'doch_'
'2009_'
'ob_'
'ne_'
'etwas_'
'Japan_'
'wollen_'
'daß_'
'current_'
'Committee_'
'question_'
'particular_'
'letzten_'
'com_'
'Rat_'
'Israel_'
'schon_'
'did_'
'back_'
'To_'
'Doch_'
'small_'
'day_'
'yang_'
've_'
'bietet_'
'based_'
'ts_'
'think_'
'beim_'
'These_'
'interest_'
'debate_'
'common_'
'each_'
'Germany_'
'Commissioner_'
'again_'
'At_'
'situation_'
'p_'
'nun_'
'business_'
'bar_'
'Zimmer_'
'Wie_'
'security_'
'put_'
'offers_'
'measures_'
'Bereich_'
'seinen_'
'military_'
'markets_'
'major_'
'Arbeit_'
'taken_'
'Ihre_'
'lich_'
'Iran_'
'come_'
'another_'
'tun_'
'tion_'
'stay_'
'rate_'
'ce_'
'Ende_'
'said_'
'result_'
'provide_'
'law_'
'citizens_'
'Euro_'
'50_'
'rather_'
'might_'
'ge_'
'continue_'
'action_'
'Internet_'
'Unterstützung_'
'Probleme_'
'2008_'
'worden_'
'term_'
'recent_'
'page_'
'House_'
'American_'
'given_'
'whether_'
'ies_'
'every_'
'ersten_'
'|_'
'gen_'
'einfach_'
'debt_'
'besteht_'
'weniger_'
'steht_'
'needs_'
'give_'
'ch_'
'Herrn_'
'Auch_'
'2000_'
'rooms_'
'ns_'
'governments_'
'called_'
'Teil_'
'Problem_'
'private_'
'New_'
'Fall_'
'12_'
'ter_'
'proposal_'
'budget_'
'On_'
'Bank_'
'non_'
'ment_'
'institutions_'
'erhalten_'
'Nach_'
'Als_'
'vote_'
'line_'
'geben_'
'full_'
'Sicherheit_'
'11_'
'sehen_'
'os_'
'little_'
'data_'
'always_'
'terms_'
'issues_'
'away_'
'around_'
'Ziel_'
'Art_'
'systems_'
'open_'
'least_'
'insbesondere_'
'hatte_'
'großen_'
'further_'
'eigenen_'
'Rolle_'
'P_'
'France_'
'sten_'
'que_'
'million_'
'du_'
'Wirtschaft_'
'Informationen_'
'life_'
'group_'
'deren_'
'World_'
'With_'
'System_'
'Russia_'
'All_'
'zwar_'
'sagen_'
'policies_'
'möglich_'
'kommen_'
'hope_'
'close_'
'bin_'
'Bürger_'
'main_'
'investment_'
'using_'
'quality_'
'off_'
'mir_'
'located_'
'legal_'
'ab_'
'T_'
'Bedeutung_'
'große_'
'einmal_'
'drei_'
'allerdings_'
'money_'
'ble_'
'Zusammenarbeit_'
'What_'
'Namen_'
'würden_'
'risk_'
'position_'
'foreign_'
'etwa_'
'He_'
'2006_'
'2005_'
'women_'
'role_'
'ihnen_'
']] _'
'Was_'
'sector_'
'ons_'
'form_'
'certain_'
'b_'
'German_'
'weiter_'
'führen_'
'f_'
'ern_'
'done_'
'age_'
'Bei_'
'2007_'
'unseren_'
'basis_'
'agreement_'
'Er_'
'öffentlichen_'
'soll_'
'rules_'
'pro_'
'particularly_'
'necessary_'
'increase_'
'erreichen_'
'dan_'
'create_'
'companies_'
'century_'
'Deutschland_'
'.”_'
'second_'
'members_'
'local_'
'dort_'
'di_'
'davon_'
'Millionen_'
'once_'
'old_'
'weitere_'
'start_'
'rn_'
'könnten_'
'dabei_'
'ago_'
'O_'
'yet_'
'together_'
'short_'
'others_'
'going_'
'Für_'
' & _'
'stehen_'
'gegenüber_'
'\u_'
'Auf_'
'staff_'
'needed_'
'location_'
'ensure_'
'conditions_'
'alles_'
'Fragen_'
'2001_'
'though_'
'often_'
'ins_'
'Weg_'
'September_'
'Rahmen_'
'Community_'
'rates_'
'low_'
'key_'
'kein_'
'him_'
'fully_'
'price_'
'meisten_'
'especially_'
'capital_'
'One_'
'itself_'
'greater_'
'control_'
'central_'
'Weise_'
'Wachstum_'
'modern_'
'innerhalb_'
'decision_'
'sogar_'
'reform_'
'nt_'
'costs_'
'aller_'
'Vorschlag_'
'ry_'
'cooperation_'
'Zukunft_'
'Seite_'
'Recht_'
'However_'
'Stadt_'
'Europas_'
'Beispiel_'
' $_'
'wissen_'
'vielen_'
'third_'
'food_'
'account_'
'M_'
'Indeed_'
'2004_'
' ..._'
'welche_'
'region_'
'meine_'
'led_'
'leaders_'
'darüber_'
'chen_'
'Um_'
'Region_'
'100_'
'whole_'
'schen_'
'name_'
'ic_'
'early_'
'children_'
'among_'
'UN_'
'Seiten_'
' _'
'tax_'
'protection_'
'present_'
'income_'
'excellent_'
'bringen_'
'banks_'
'aid_'
'25_'
'value_'
'several_'
'nd_'
'ischen_'
'following_'
'wirtschaftlichen_'
'wirklich_'
'resources_'
'reason_'
'having_'
'weit_'
'really_'
'progress_'
'möchten_'
'macht_'
'kommt_'
'internationalen_'
'europäische_'
'centre_'
'bieten_'
'Chinese_'
'sowohl_'
'democracy_'
'stellt_'
'something_'
'nen_'
'left_'
'environment_'
'democratic_'
'daher_'
'Möglichkeit_'
'Grund_'
'16_'
'weiterhin_'
'water_'
'home_'
'fast_'
'Zusammenhang_'
'Frauen_'
'2003_'
'states_'
'shall_'
'ja_'
'include_'
'single_'
'production_'
'nden_'
'longer_'
'indem_'
'India_'
'Bush_'
'land_'
'kan_'
'efforts_'
'Mrs_'
'2002_'
'working_'
'until_'
'society_'
'poor_'
'nationalen_'
'matter_'
'likely_'
'force_'
'besonders_'
'Group_'
'French_'
'unterstützen_'
'offer_'
'meiner_'
'list_'
'Kinder_'
'un_'
'regard_'
'fiscal_'
'entfernt_'
'beiden_'
'No_'
'Mittel_'
'Central_'
'18_'
'standards_'
'period_'
'never_'
'nehmen_'
'men_'
'halten_'
'gentlemen_'
'difficult_'
'cost_'
'ar_'
'approach_'
'Parlaments_'
'N_'
'Dollar_'
'wichtig_'
'views_'
'verschiedenen_'
'resolution_'
'ren_'
'prices_'
'ner_'
'look_'
'keit_'
'Investitionen_'
'G_'
'side_'
'results_'
'respect_'
'research_'
'interests_'
'industry_'
'ihm_'
'hand_'
'developing_'
'almost_'
'Leben_'
'Iraq_'
'International_'
' % _'
'wirtschaftliche_'
'special_'
'member_'
'management_'
'created_'
'Ziele_'
'Vereinigten_'
'Daten_'
'show_'
'sei_'
'programme_'
'ness_'
'experience_'
'erste_'
'enough_'
'breakfast_'
'aufgrund_'
'address_'
'State_'
'Regierungen_'
'40_'
'24_'
'wenig_'
'things_'
'taking_'
'remain_'
'proposals_'
'parties_'
'nichts_'
'ihn_'
'etc_'
'U_'
'Russland_'
'Obama_'
'Fraktion_'
'transport_'
'play_'
'near_'
'ierung_'
'iert_'
'history_'
'general_'
'family_'
'billion_'
'R_'
'Landes_'
'L_'
'Grundlage_'
'seinem_'
'products_'
'ous_'
'natürlich_'
'les_'
'hinaus_'
'easy_'
'demand_'
'call_'
'Service_'
'Richtlinie_'
'Krise_'
'ty_'
'thus_'
'technology_'
'site_'
'questions_'
'nuclear_'
'lichen_'
'known_'
'ische_'
'ieren_'
'hin_'
'feel_'
'building_'
'Verfügung_'
'Thema_'
'Lösung_'
'Kollegen_'
'wish_'
'towards_'
'dessen_'
'befindet_'
'An_'
'14_'
'proposed_'
'liche_'
'keinen_'
'ity_'
'higher_'
'gute_'
'eren_'
'darin_'
'Programm_'
'Man_'
'Kommissar_'
'F_'
'workers_'
'version_'
'themselves_'
'solution_'
'projects_'
'pay_'
'months_'
'hard_'
'ever_'
'che_'
'ask_'
'adopted_'
'Macht_'
'schnell_'
'regional_'
'program_'
'points_'
'past_'
'levels_'
'lead_'
'ihrem_'
'gilt_'
'em_'
'ebenfalls_'
'beispielsweise_'
'Institutionen_'
'Gemeinschaft_'
'East_'
'By_'
'60_'
' '
'welcome_'
'strategy_'
'sicher_'
'sche_'
'rt_'
'personal_'
'gehen_'
'economies_'
'directive_'
'cultural_'
'bleiben_'
'bedeutet_'
'agree_'
'Ansicht_'
'21_'
'19_'
'vielleicht_'
'specific_'
'software_'
'serious_'
'related_'
'plan_'
'ia_'
'found_'
'either_'
'effective_'
'education_'
'direkt_'
'besser_'
'above_'
'Situation_'
'Schutz_'
'Meinung_'
'After_'
'various_'
'schaffen_'
'reforms_'
'freedom_'
'framework_'
'ens_'
'deal_'
'comes_'
'South_'
'November_'
'Kosten_'
'Even_'
'Da_'
'ting_'
'rapporteur_'
'provided_'
'impact_'
'enjoy_'
'concerns_'
'climate_'
'authorities_'
'allow_'
'Strategie_'
'Dieser_'
'à_'
'user_'
'town_'
'th_'
'ted_'
'strong_'
'seen_'
'remains_'
'ra_'
'party_'
'opportunity_'
'ladies_'
'groups_'
'X_'
'Restaurant_'
'Our_'
'Form_'
'– _'
'simply_'
'significant_'
'quite_'
'let_'
'leading_'
'language_'
'jeder_'
'ive_'
'globalen_'
'behalf_'
'Gesellschaft_'
'Africa_'
';_'
'2010_'
'peace_'
'pages_'
'online_'
'oil_'
'makes_'
'due_'
'Milliarden_'
'Menschenrechte_'
'Hilfe_'
'Geschichte_'
'Demokratie_'
'upon_'
'true_'
'subject_'
'seems_'
'relations_'
'ls_'
'km_'
'growing_'
'forward_'
'effect_'
'daran_'
'W_'
'Treaty_'
'Of_'
'Minister_'
'Madam_'
'zurück_'
'total_'
'top_'
'sollen_'
'solche_'
'safety_'
'later_'
'face_'
'ebenso_'
'care_'
'big_'
'appropriate_'
'amendments_'
'West_'
'Ukraine_'
'Beziehungen_'
'Alle_'
'young_'
'success_'
'spending_'
'she_'
'recently_'
'positive_'
'kind_'
'ions_'
'internationale_'
'individual_'
'genau_'
'führt_'
'euro_'
'environmental_'
'concerned_'
'Rates_'
'GDP_'
'Dieses_'
'share_'
'setzen_'
'opinion_'
'light_'
'improve_'
'huge_'
'half_'
'gemacht_'
'eurozone_'
'community_'
'attention_'
'Some_'
'Krieg_'
'Ihr_'
'EUR_'
'w_'
'sure_'
'stand_'
'son_'
'sen_'
'outside_'
'nutzen_'
'funds_'
'four_'
'deutlich_'
'content_'
'changes_'
'addition_'
'Western_'
'T'
'Mitglieder_'
'Italy_'
'words_'
'wichtige_'
'traditional_'
'text_'
'station_'
'rise_'
'population_'
'nächsten_'
'nothing_'
'living_'
'legislation_'
'idea_'
'gab_'
'fundamental_'
'fall_'
'bekannt_'
'amerikanischen_'
'Während_'
'V_'
'Hotels_'
'Frankreich_'
'Auswirkungen_'
'Aus_'
'times_'
'house_'
'held_'
'heart_'
'field_'
'erreicht_'
'employment_'
'developed_'
'currently_'
'bzw_'
'art_'
'arbeiten_'
'Turkey_'
'Paris_'
'Moreover_'
'London_'
'Geld_'
'Bevölkerung_'
'thank_'
'sense_'
'restaurant_'
'required_'
'person_'
'ma_'
'll_'
'ie_'
'hätte_'
'forces_'
'facilities_'
'Zugang_'
'Members_'
'Dienstleistungen_'
'British_'
'"_'
' . _'
'v_'
'ur_'
'stability_'
'product_'
'principle_'
'minutes_'
'majority_'
'jobs_'
'inflation_'
'ging_'
'gesagt_'
'exchange_'
'einigen_'
'date_'
'certainly_'
'actually_'
'UK_'
'M'
'Erfolg_'
'Bedingungen_'
')_'
'"._'
'unterstützt_'
'statt_'
'sea_'
'run_'
'nämlich_'
'model_'
'hours_'
'ert_'
'across_'
'Umsetzung_'
'Markt_'
'1999_'
'é_'
'whose_'
'via_'
'unserem_'
'reduce_'
'range_'
'potential_'
'nde_'
'na_'
'indeed_'
'hatten_'
'game_'
'ende_'
'elections_'
'deshalb_'
'days_'
'company_'
'cases_'
'benefits_'
'ben_'
'beautiful_'
'alten_'
'along_'
'Windows_'
'Schritt_'
'National_'
'Interesse_'
'Ihrer_'
'Greece_'
'Entscheidung_'
'Bezug_'
'similar_'
'self_'
'sch_'
'parts_'
'natural_'
'media_'
'keyword_'
'directly_'
'consider_'
'ca_'
'bleibt_'
'application_'
'air_'
'Asia_'
',” _'
'&_'
' : _'
'regulation_'
'pool_'
'lot_'
'los_'
'lediglich_'
'gerade_'
'five_'
'cy_'
'co_'
'capacity_'
'anti_'
'achieve_'
'Tatsache_'
'Tag_'
'TV_'
'Office_'
'Liste_'
'Haus_'
'Ebene_'
'Berlin_'
'unser_'
'understand_'
'thing_'
'tes_'
'table_'
'sprechen_'
'size_'
'job_'
'emerging_'
'War_'
'Personen_'
'Nähe_'
'Ergebnis_'
'Debatte_'
'April_'
'wide_'
'rule_'
'project_'
'prevent_'
'opportunities_'
'mean_'
'lange_'
'je_'
'involved_'
'increasingly_'
'handelt_'
'focus_'
'eher_'
'conflict_'
'bring_'
'body_'
'bereit_'
'bed_'
'ary_'
'Z'
'While_'
'January_'
'Gewalt_'
'Deshalb_'
'violence_'
'verhindern_'
'sozialen_'
'si_'
'regions_'
'ngen_'
'meeting_'
'complete_'
'car_'
'ant_'
'Präsidenten_'
'Irak_'
'Interessen_'
'17_'
'13_'
'verwendet_'
'scheint_'
'response_'
'notwendig_'
'lässt_'
'jeden_'
'heißt_'
'großer_'
'ger_'
'gemeinsame_'
'features_'
'event_'
'dürfen_'
'competition_'
'clearly_'
'check_'
'administration_'
'add_'
'Verantwortung_'
'La_'
'Jahres_'
'Government_'
'Afghanistan_'
' ( _'
'tatsächlich_'
'ste_'
'road_'
'provides_'
'popular_'
'obwohl_'
'nature_'
'move_'
'image_'
'ig_'
'gleichzeitig_'
'existing_'
'everything_'
'ds_'
'direct_'
'computer_'
'clean_'
'civil_'
'center_'
'came_'
'amount_'
'Park_'
'Kampf_'
'Einsatz_'
'ziehen_'
'ways_'
'ss_'
'night_'
'negotiations_'
'live_'
'il_'
'fight_'
'enden_'
'del_'
'decisions_'
'culture_'
'Türkei_'
'Partei_'
'Möglichkeiten_'
'II_'
'G'
'Bereichen_'
'Banken_'
'BIP_'
'23_'
'ya_'
'week_'
'verfügt_'
'training_'
'tragen_'
'six_'
'politik_'
'network_'
'meet_'
'keep_'
'internal_'
'instead_'
'increased_'
'file_'
'effects_'
'betrifft_'
'balance_'
'activities_'
'] _'
'Zu_'
'North_'
'Hier_'
'Aussprache_'
'Allerdings_'
'", _'
' -_'
'weiß_'
'space_'
'return_'
'poverty_'
'nie_'
'net_'
'möglicherweise_'
'liegen_'
'ideal_'
'hohen_'
'extremely_'
'chinesischen_'
'besten_'
'below_'
'Spain_'
'San_'
'Richtung_'
'Chinas_'
' ''_'
'“, _'
'weiteren_'
'wahrscheinlich_'
'vergangenen_'
'values_'
'turn_'
'toward_'
'spielen_'
'simple_'
'rest_'
'perhaps_'
'performance_'
'infrastructure_'
'included_'
'erst_'
'dar_'
'customers_'
'contains_'
'commitment_'
'ck_'
'York_'
'Wert_'
'Staat_'
'Software_'
'Regionen_'
'Ort_'
'Grenzen_'
'Booking_'
'Ausschuss_'
'80_'
'wären_'
'wichtigen_'
'weltweit_'
'unternehmen_'
'try_'
'took_'
'step_'
'soziale_'
'reviews_'
'responsible_'
'oft_'
'neu_'
'negara_'
'late_'
'labor_'
'klar_'
'importance_'
'hätten_'
'heit_'
'fünf_'
'former_'
'favour_'
'essential_'
'doing_'
'design_'
'derzeit_'
'currency_'
'zusammen_'
'ze_'
'president_'
'moment_'
'lack_'
'kleinen_'
'integration_'
'ings_'
'external_'
'einzelnen_'
'challenges_'
'brauchen_'
'befinden_'
'beach_'
'Wahl_'
'Vor_'
'Von_'
'Tatsächlich_'
'Party_'
'Ihren_'
'Großbritannien_'
'Aufgabe_'
'Am_'
' ‘_'
'wegen_'
'ta_'
'successful_'
'responsibility_'
'require_'
'reasons_'
'places_'
'negative_'
'ian_'
'glaube_'
'geführt_'
'friendly_'
'develop_'
'credit_'
'ces_'
'built_'
'bank_'
'Today_'
'Rechte_'
'Preis_'
'My_'
'Außerdem_'
'Amerika_'
'-, _'
'ändern_'
'verschiedene_'
'sub_'
'stark_'
'soon_'
'red_'
'protect_'
'option_'
'ler_'
'len_'
'largest_'
'implementation_'
'igen_'
'ien_'
'größten_'
'ent_'
'double_'
'despite_'
'decades_'
'darf_'
'cause_'
'benefit_'
'Zum_'
'Verfahren_'
'V'
'S'
'O'
'Mal_'
'I'
'Behörden_'
'Abstimmung_'
'. - (_'
'�_'
'takes_'
'pressure_'
'jedes_'
'events_'
'established_'
'comfortable_'
'board_'
'although_'
'agenda_'
'Verhandlungen_'
'Spanien_'
'May_'
'K_'
'Initiative_'
'Ergebnisse_'
'Enterprise_'
'Court_'
'Britain_'
'Armut_'
'Antwort_'
'wichtigsten_'
'walk_'
'video_'
'v'
'type_'
'strategic_'
'steps_'
'status_'
'rich_'
'lower_'
'guarantee_'
'gehört_'
'ermöglichen_'
'designed_'
'complex_'
'card_'
'bisher_'
'behind_'
'angesichts_'
'Zahl_'
'Website_'
'Verbindung_'
'Russian_'
'Reformen_'
'Presidency_'
'How_'
'F'
'Dabei_'
'D'
'City_'
'Bemühungen_'
' / _'
'wohl_'
'verbunden_'
'thought_'
'terrorism_'
'stop_'
'standard_'
'schließlich_'
'rund_'
'risks_'
'regime_'
'post_'
'nya_'
'nor_'
'mal_'
'isch_'
'internet_'
'hen_'
'gemeinsam_'
'gehören_'
'gar_'
'findet_'
'beginning_'
'became_'
'Yet_'
'Verfassung_'
'Uhr_'
'Politiker_'
'Platz_'
'Mehrheit_'
'K'
'First_'
'Fed_'
'Druck_'
'Bar_'
'Artikel_'
'Ansatz_'
'zeit_'
'zeigen_'
'wobei_'
'visit_'
'vier_'
'threat_'
'receive_'
'reach_'
'purpose_'
'probably_'
'practice_'
'official_'
'looking_'
'limited_'
'ihres_'
'highly_'
'committee_'
'closed_'
'ally_'
'according_'
'ability_'
'Vorschläge_'
'Version_'
'Prozess_'
'Nationen_'
'NATO_'
'More_'
'Indien_'
'Handel_'
'Führung_'
'From_'
'Eurozone_'
'B'
'70_'
'200_'
'sustainable_'
'study_'
'started_'
'reality_'
'programs_'
'plans_'
'ors_'
'nice_'
'music_'
'monetary_'
'konnte_'
'helfen_'
'guests_'
'falls_'
'enable_'
'consequences_'
'confidence_'
'ck'
'cal_'
'basic_'
'bad_'
'accept_'
'Now_'
'Kunden_'
'June_'
'Beginn_'
'..." _'
', “_'
'zehn_'
'style_'
'shown_'
'raise_'
'previous_'
'matters_'
'lt_'
'lost_'
'lives_'
'konnten_'
'knowledge_'
'industrial_'
'hohe_'
'gewährleisten_'
'gegeben_'
'gebracht_'
'erforderlich_'
'effort_'
'creating_'
'context_'
'consumers_'
'con_'
'caused_'
'asked_'
'answer_'
'Seit_'
'Punkt_'
'Prozent_'
'Only_'
'English_'
'Development_'
'Damit_'
'500_'
'öffentliche_'
'Öffentlichkeit_'
'zeigt_'
'werde_'
'ure_'
'unique_'
'source_'
'sound_'
'setting_'
'seines_'
'presented_'
'nahe_'
'ks_'
'ker_'
'ism_'
'gas_'
'entwickeln_'
'darum_'
'creation_'
'choose_'
'challenge_'
'categories_'
'bus_'
'beyond_'
'active_'
'act_'
'Wort_'
'Natürlich_'
'Hinblick_'
'Gruppe_'
'Gelegenheit_'
'Gefahr_'
'Förderung_'
'Europeans_'
'Entscheidungen_'
'Dank_'
'Berichterstatter_'
'Arab_'
'Abkommen_'
'äußerst_'
'treatment_'
'sometimes_'
'solutions_'
'seem_'
'saying_'
'recht_'
'politicians_'
'partner_'
'note_'
'latest_'
'guten_'
'gesamten_'
'gemeinsamen_'
'fragen_'
'finance_'
'failure_'
'evidence_'
'ermöglicht_'
'enthält_'
'domestic_'
'dadurch_'
'cher_'
'aware_'
'alone_'
'Spiel_'
'Ressourcen_'
'Regeln_'
'Putin_'
'P'
'Middle_'
'Hand_'
'General_'
'Gebiet_'
'Darüber_'
'Bildung_'
'Barcelona_'
'August_'
' " _'
'“._'
'zone_'
'zen_'
'zed_'
'völlig_'
'verwenden_'
'unemployment_'
'ties_'
'throughout_'
'quickly_'
'programmes_'
'politics_'
'please_'
'objective_'
'lines_'
'leben_'
'larger_'
'ke_'
'jede_'
'ige_'
'guest_'
'gleich_'
'fest_'
'equal_'
'danken_'
'damage_'
'choice_'
'build_'
'bekommen_'
'average_'
'aktuellen_'
'agricultural_'
'achieved_'
'University_'
'St_'
'Schlusselwortern_'
'Produkte_'
'Notwendigkeit_'
'March_'
'Herren_'
'Funktion_'
'Folgen_'
'Datei_'
'CD_'
'Anwendung_'
'Angesichts_'
'1990_'
'verstehen_'
'test_'
'setzt_'
'res_'
'request_'
'movement_'
'mentioned_'
'independent_'
'globale_'
'gleichen_'
'gestellt_'
'ganzen_'
'fear_'
'fair_'
'failed_'
'erung_'
'enlargement_'
'distribution_'
'direction_'
'ding_'
'coming_'
'au_'
'anything_'
'X'
'Terrorismus_'
'Since_'
'Reform_'
'Palestinian_'
'Minuten_'
'Kosovo_'
'Kontrolle_'
'IMF_'
'Ausdruck_'
'Aufmerksamkeit_'
'Anfang_'
'Abgeordneten_'
'160_'
'. _'
'x'
'wrong_'
'weder_'
'web_'
'ves_'
'verfügen_'
'supported_'
'shows_'
'procedure_'
'principles_'
'ken_'
'ini_'
'includes_'
'goods_'
'final_'
'famous_'
'entwickelt_'
'e'
'don_'
'deficit_'
'consumer_'
'cht_'
'charge_'
'ch'
'book_'
'base_'
'akan_'
'advanced_'
'Y_'
'Tage_'
'Many_'
'Kraft_'
'Korea_'
'Israeli_'
'H'
'Fortschritte_'
'Erweiterung_'
'Durch_'
'Debian_'
'Dazu_'
'Damen_'
'Bild_'
'Bekämpfung_'
'Americans_'
'%._'
'übernachten_'
'zudem_'
'ton_'
't'
'submitted_'
'speed_'
'reached_'
'produced_'
'produce_'
'perfect_'
'objectives_'
'mind_'
'massive_'
'm'
'lose_'
'initiative_'
'increasing_'
'i'
'häufig_'
'ht_'
'hold_'
'hoffe_'
'ground_'
'giving_'
'ful_'
'est_'
'enthalten_'
'eben_'
'consumption_'
'considered_'
'completely_'
'class_'
'cities_'
'annual_'
'additional_'
'accommodation_'
'Wann_'
'Viele_'
'Veränderungen_'
'Umwelt_'
'Security_'
'Schaffung_'
'Rights_'
'Reihe_'
'Nutzung_'
'Mitglied_'
'Lisbon_'
'L'
'Federal_'
'E'
'Chance_'
'Blick_'
'Ausgaben_'
': „_'
'90_'
'27_'
'22_'
' % _'
'zweite_'
'worked_'
'weapons_'
'ut_'
'untuk_'
'trotz_'
'tell_'
'technologies_'
'target_'
'später_'
'speak_'
'sorgen_'
'situated_'
'richtig_'
'restaurants_'
'requirements_'
'partners_'
'package_'
'p'
'news_'
'mobile_'
'ismus_'
'ier_'
'größte_'
'genug_'
'fallen_'
'erster_'
'emissions_'
'election_'
'decided_'
'death_'
'brought_'
'allows_'
'agreements_'
'added_'
'Text_'
'Services_'
'Jahrhundert_'
'Instead_'
'Here_'
'Herausforderung_'
'Gesamt'
'Fund_'
'Frieden_'
'Finally_'
'Erklärung_'
'Einfluss_'
'December_'
'Beitrag_'
'45_'
'300_'
'1791_'
'Änderungsantrag_'
'zahlen_'
'voted_'
'team_'
'students_'
'secure_'
'options_'
'ments_'
'goal_'
'function_'
'files_'
'fen_'
'extra_'
'extent_'
'entire_'
'einschließlich_'
'eigene_'
'contact_'
'cally_'
'allein_'
'aim_'
'Zentrum_'
'Verwendung_'
'Verbraucher_'
'Schließlich_'
'Qualität_'
'Märkte_'
'Kultur_'
'Its_'
'Italien_'
'Forschung_'
'EN_'
'During_'
'Daher_'
'DE_'
'? _'
'zweiten_'
'won_'
'technical_'
'supply_'
'stärker_'
'send_'
'prepared_'
'original_'
'opposition_'
'mail_'
'ling_'
'item_'
'ft_'
'front_'
'f'
'digital_'
'dialogue_'
'critical_'
'concern_'
'changed_'
'bevor_'
'ber_'
'allowed_'
'Wettbewerb_'
'WTO_'
'W'
'So'
'Programme_'
'Nations_'
'Gästebewertungen_'
'Furthermore_'
'Fehler_'
'Ausschusses_'
'28_'
'1781_'
'wenige_'
'website_'
'wealth_'
'voll_'
'versuchen_'
'tra'
'stage_'
'solidarity_'
'scale_'
'providing_'
'players_'
'paid_'
'offered_'
'lle_'
'legen_'
'kam_'
'insgesamt_'
'influence_'
'geworden_'
'generation_'
'gain_'
'forms_'
'follow_'
'erklärt_'
'erklären_'
'distance_'
'concept_'
'carried_'
'campaign_'
'borders_'
'bitte_'
'began_'
'b'
'aspects_'
'ang_'
'[_'
'Vergangenheit_'
'Unsere_'
'Server_'
'Opfer_'
'Meer_'
'July_'
'Hamas_'
'Griechenland_'
'Gesundheit_'
'Familie_'
'Although_'
'African_'
'A'
': '
'übernehmen_'
'uses_'
'structural_'
'story_'
'ssen_'
'server_'
'officials_'
'office_'
'neben_'
'month_'
'map_'
'leave_'
'lang_'
'jene_'
'ja'
'immigration_'
'historical_'
'hinter_'
'gt_'
'genannten_'
'fördern_'
'erwartet_'
'erwarten_'
'erneut_'
'einzige_'
'doubt_'
'demokratischen_'
'dari_'
'construction_'
'concerning_'
'ate_'
'apartment_'
'anderer_'
'Werte_'
'Unter_'
'Themen_'
'Stelle_'
'Präsidentin_'
'Portugal_'
'Person_'
'Pakistan_'
'Organisation_'
'Le_'
'Ko'
'Industrie_'
'Idee_'
'H_'
'Dinge_'
'Dialog_'
'DVD_'
'C'
' [_'
' ) _'
'zunehmend_'
'zumindest_'
'writing_'
'worldwide_'
'verbessern_'
'usually_'
'users_'
'treffen_'
'tions_'
'tidak_'
'tic_'
'search_'
'save_'
'rising_'
'ring_'
'reports_'
'quiet_'
'professional_'
'privaten_'
'parking_'
'nimmt_'
'links_'
'kosten_'
'kleine_'
'jedem_'
'hoch_'
'head_'
'glauben_'
'getan_'
'funding_'
'erte_'
'disease_'
'deutschen_'
'demands_'
'connection_'
'committed_'
'code_'
'child_'
'ated_'
'airport_'
'Zeitpunkt_'
'Wasser_'
'Stunden_'
'Prime_'
'Obwohl_'
'Most_'
'Mediterranean_'
'Linux_'
'Italian_'
'Information_'
'Höhe_'
'Flughafen_'
'Erstens_'
'Einkommen_'
'Dezember_'
'Center_'
'Anti'
'Afrika_'
'Änderungsanträge_'
'ying_'
'warum_'
'wanted_'
'solchen_'
'seek_'
'relationship_'
'practical_'
'politischer_'
'nis_'
'mus_'
'morning_'
'meinen_'
'material_'
'implemented_'
'helpful_'
'geschaffen_'
'folgt_'
'fishing_'
'eigentlich_'
'effectively_'
'dollar_'
'decline_'
'communication_'
'businesses_'
'border_'
'benötigen_'
'applied_'
'appears_'
'angenommen_'
'alternative_'
'Wahlen_'
'Tat_'
'Sozial'
'Schwierigkeiten_'
'Room_'
'Risiken_'
'Republic_'
'Position_'
'People_'
'Parteien_'
'Osten_'
'Markt'
'Lösungen_'
'Lissabon_'
'Let_'
'Kingdom_'
'Ihrem_'
'Fällen_'
'Frühstück_'
'Convention_'
'Austria_'
'Anzahl_'
'Affairs_'
': "_'
'zentrale_'
'works_'
'wants_'
'vermeiden_'
'ver_'
'statement_'
'served_'
'serve_'
'series_'
'sed_'
'safe_'
'requires_'
'provisions_'
'powerful_'
'police_'
'path_'
'neuer_'
'ms_'
'meinem_'
'leadership_'
'leader_'
'join_'
'illegal_'
'gewesen_'
'drive_'
'cs_'
'chinesische_'
'beitragen_'
'avoid_'
'authority_'
'aufgenommen_'
'ations_'
'applications_'
'amerikanische_'
'agreed_'
'actions_'
'Zudem_'
'Zeiten_'
'Web_'
'Vertrauen_'
'Please_'
'Nachfrage_'
'Latin_'
'Juni_'
'J'
'IT_'
'Heute_'
'Greek_'
'Google_'
'Globalisierung_'
'George_'
'Egypt_'
'Economic_'
'Besuch_'
'Amerikas_'
'Aktivitäten_'
'2013_'
'1998_'
' "..._'
'weltweiten_'
'talk_'
'stable_'
'speech_'
'somit_'
'schützen_'
'sagte_'
'regards_'
'reduced_'
'received_'
'read_'
'property_'
'overall_'
'nearly_'
'method_'
'mehrere_'
'legislative_'
'instruments_'
'ideas_'
'getting_'
'everyone_'
'establish_'
'erhöhen_'
'elected_'
'efficient_'
'durchgeführt_'
'cut_'
'competitive_'
'compared_'
'bringt_'
'bit_'
'bestehen_'
'Tagen_'
'Such_'
'Station_'
'Stabilität_'
'Revolution_'
'R'
'Plan_'
'Nicht_'
'Management_'
'Konferenz_'
'Integration_'
'Herzen_'
'Financial_'
'Design_'
'Club_'
'CO2_'
'Bitte_'
'Bestimmungen_'
'31_'
'3'
'., _'
''' _'
'с'
'ät_'
'Änderungen_'
'zahlreiche_'
'z'
'word_'
'wichtiger_'
'variety_'
'union_'
'trading_'
'star_'
'reducing_'
'productivity_'
'n'
'message_'
'leider_'
'leicht_'
'jüngsten_'
'joint_'
'immediately_'
'ial_'
'hinsichtlich_'
'h'
'geschlossen_'
'folgen_'
'equipped_'
'elsewhere_'
'ell_'
'discussion_'
'difference_'
'developments_'
'deficits_'
'comprehensive_'
'bewusst_'
'beide_'
'attacks_'
'attack_'
'anders_'
'affected_'
'Vertrag_'
'Technologie_'
'PC_'
'Nur_'
'März_'
'Japanese_'
'Ireland_'
'Great_'
'Energie_'
'Centre_'
'Bereiche_'
'Bad_'
'. '
'ze'
'ums_'
'types_'
'train_'
'tools_'
'thousands_'
'ter'
'suggest_'
'stock_'
'sectors_'
'school_'
'representatives_'
'relativ_'
'reichen_'
'promote_'
'priority_'
'possibility_'
'park_'
'nationale_'
'mit'
'medical_'
'las_'
'kaum_'
'instrument_'
'initiatives_'
'genommen_'
'frei_'
'forced_'
'farmers_'
'expected_'
'erfolgreich_'
'elements_'
'easily_'
'degree_'
'dangerous_'
'chance_'
'becoming_'
'bald_'
'ausgestattet_'
'apply_'
'ance_'
'Währung_'
'Woche_'
'Vereinten_'
'Tu'
'Syria_'
'Sicht_'
'Pro'
'Preise_'
'Policy_'
'Not_'
'Neu'
'Microsoft_'
'Mail_'
'Land'
'Küche_'
'His_'
'High_'
'Global_'
'Freiheit_'
'Free_'
'Finanz'
'Einführung_'
'Constitution_'
'Brazil_'
'Arbeitslosigkeit_'
'1980_'
'y'
'whom_'
'ue_'
'turned_'
'to'
'sieht_'
'sa_'
'refugees_'
'reduction_'
'programm_'
'precisely_'
'played_'
'para_'
'paar_'
'organisation_'
'nächste_'
'ni_'
'middle_'
'mein_'
'letzte_'
'leisten_'
'keiten_'
'k'
'jeweiligen_'
'institutional_'
'holiday_'
'gesamte_'
'firms_'
'expect_'
'ere_'
'diejenigen_'
'crucial_'
'commercial_'
'colleagues_'
'circumstances_'
'carry_'
'betrachtet_'
'bereich_'
'bare_'
'activity_'
'Why_'
'Waffen_'
'Verbesserung_'
'Te'
'Systems_'
'Standards_'
'Site_'
'Personal_'
'Oktober_'
'October_'
'Just_'
'Infrastruktur_'
'Guest_'
'Grand_'
'Finanzierung_'
'Do_'
'Directive_'
'CA'
'Auswahl_'
'Auffassung_'
'Arbeitnehmer_'
'According_'
'35_'
'29_'
', '
'* _'
')'
'ß_'
'® _'
'went_'
'trust_'
'travel_'
'tor_'
'task_'
'ship_'
'sh_'
's'
'review_'
'religious_'
'relevant_'
'regulations_'
'record_'
'raised_'
'procedures_'
'pleased_'
'ning_'
'nce_'
'minute_'
'minister_'
'mention_'
'maintain_'
'mag_'
'lösen_'
'länger_'
'island_'
'investors_'
'improving_'
'ierten_'
'hour_'
'hotels_'
'größere_'
'genießen_'
'gekommen_'
'ga_'
'fort'
'equipment_'
'enter_'
'ence_'
'dringend_'
'conference_'
'c'
'break_'
'boost_'
'banking_'
'akzeptieren_'
'advantage_'
'Verordnung_'
'Umgebung_'
'Trade_'
'Therefore_'
'Tagesordnung_'
'Star_'
'Sorge_'
'Ra'
'Museum_'
'Linie_'
'IWF_'
'England_'
'Den_'
'Conference_'
'Co'
'Asien_'
'Also_'
'2012_'
'2'
'--_'
'). _'
'zusätzliche_'
'written_'
'white_'
'walking_'
'unbedingt_'
'tät_'
'tabled_'
'stets_'
'sse_'
'sign_'
'section_'
'round_'
'reserves_'
'presence_'
'ped_'
'participation_'
'ory_'
'neither_'
'nbsp_'
'nation_'
'namely_'
'largely_'
'lag_'
'ku'
'kannst_'
'justice_'
'j_'
'implement_'
'hält_'
'historischen_'
'hands_'
'gs_'
'gives_'
'gewinnen_'
'ganze_'
'feature_'
'facing_'
'eten_'
'erkennen_'
'erfordert_'
'draw_'
'documents_'
'denke_'
'deine_'
'deep_'
'burden_'
'attempt_'
'atmosphere_'
'assistance_'
'aimed_'
'agriculture_'
'Zweitens_'
'Zweifel_'
'Wettbewerbsfähigkeit_'
'Transparenz_'
'Spanish_'
'Social_'
'Secondly_'
'Sea_'
'Rooms_'
'Robert_'
'Restaurants_'
'Republik_'
'Raum_'
'N'
'Monaten_'
'Methode_'
'Mai_'
'Islam_'
'Gründen_'
'Forum_'
'Erfahrung_'
'Einigung_'
'Code_'
'Asian_'
'4'
'... _'
'.)_'
'.'
'weeks_'
'voting_'
'votes_'
'unterschiedlichen_'
'ul_'
'trying_'
'ten'
'sts_'
'spend_'
'sm_'
'shift_'
'sechs_'
'schwierig_'
'schaft_'
'recovery_'
'press_'
'pre_'
'plant_'
'phone_'
'output_'
'normal_'
'networks_'
'nations_'
'modified_'
'merely_'
'membership_'
'meines_'
'manufacturing_'
'ley_'
'ierte_'
'historic_'
'happen_'
'grounds_'
'goes_'
'gesetzt_'
'gen'
'friends_'
'floor_'
'financing_'
'establishment_'
'ess_'
'erfüllen_'
'ellen_'
'eiten_'
'efficiency_'
'draft_'
'darstellt_'
'daily_'
'conclusion_'
'clients_'
'cken_'
'changing_'
'carbon_'
'buy_'
'begin_'
'bathroom_'
'außerhalb_'
'assessment_'
'Wirtschaftswachstum_'
'Wer_'
'Vorteile_'
'Un'
'Schulden_'
'Rezession_'
'Regierungs'
'Punkte_'
'Projekt_'
'Produktion_'
'Poland_'
'Per'
'Lo'
'Juli_'
'Jo'
'Jahrhunderts_'
'Inter'
'Innovation_'
'Human_'
'Herausforderungen_'
'Gruppen_'
'Europäer_'
'Erfahrungen_'
'Energie'
'Diskussion_'
'Both_'
'Bedrohung_'
'Al_'
'Airport_'
'0'
'Änderung_'
'zuletzt_'
'weise_'
'versucht_'
'up'
'unten_'
'sing_'
'ses_'
'scientific_'
'running_'
'regarding_'
'rd_'
'pre'
'policymakers_'
'plus_'
'mission_'
'mass_'
'ka_'
'innovation_'
'innen_'
'improved_'
'impossible_'
'hin'
'haus_'
'halte_'
'gezeigt_'
'gefunden_'
'fordern_'
'express_'
'exports_'
'export_'
'entspricht_'
'entsprechende_'
'derartige_'
'der'
'decade_'
'd'
'contribution_'
'considerable_'
'compromise_'
'competitiveness_'
'braucht_'
'bodies_'
'bilden_'
'betrachten_'
'au'
'ans_'
'Westen_'
'Welt'
'Warum_'
'Vielfalt_'
'Unterkategorien_'
'Technologien_'
'Spa_'
'She_'
'Resort_'
'Partner_'
'Mitte_'
'Mexico_'
'Investoren_'
'Erholung_'
'Du'
'Costa_'
'Article_'
'Angebot_'
'überzeugt_'
'überall_'
'zunächst_'
'ys_'
'wo'
'weisen_'
'vision_'
'umgesetzt_'
'treten_'
'transparent_'
'told_'
'ster_'
'steigen_'
'sta'
'speaking_'
'sites_'
'shopping_'
'screen_'
'schwer_'
'says_'
'regionale_'
'refer_'
'reading_'
'profitieren_'
'primary_'
'ping_'
'outcome_'
'operations_'
'operation_'
'opening_'
'offen_'
'neues_'
'multi_'
'lies_'
'lernen_'
'ko'
'ität_'
'ir_'
'investments_'
'inter'
'intended_'
'insurance_'
'ine_'
'igkeit_'
'hu'
'highest_'
'happened_'
'handeln_'
'freien_'
'freie_'
'film_'
'families_'
'erzielt_'
'entscheiden_'
'enti'
'el'
'ei_'
'easier_'
'document_'
'defense_'
'darstellen_'
'controls_'
'congratulate_'
'britischen_'
'bestimmten_'
'bessere_'
'bar'
'appear_'
'amendment_'
'ale_'
'addressed_'
'Weltwirtschaft_'
'Volkswirtschaften_'
'Team_'
'Su'
'Street_'
'Strand_'
'Stimme_'
'Status_'
'Sektor_'
'See'
'RE'
'Public_'
'Privat'
'Online_'
'Musik_'
'Kommissarin_'
'Kolleginnen_'
'John_'
'Installation_'
'Inflation_'
'Handels'
'Folge_'
'ECB_'
'Dateien_'
'Da'
'Berichte_'
'Because_'
'Arbeitsplätze_'
'Annahme_'
'Angelegenheiten_'
'A5_'
'26_'
'2011_'
'überhaupt_'
'är'
'za'
'ya'
'wählen_'
'wider_'
'waste_'
'vital_'
'victims_'
'useful_'
'urban_'
'theory_'
'television_'
'taxes_'
'structure_'
'staatlichen_'
'saw_'
'sales_'
'relation_'
'reference_'
'raum_'
'rapidly_'
'presidency_'
'powers_'
'planning_'
'owing_'
'numerous_'
'muß_'
'moral_'
'moderne_'
'met_'
'mainly_'
'log_'
'letztlich_'
'lagen_'
'kurz_'
'king_'
'innovative_'
'immediate_'
'hol'
'hoch'
'heard_'
'gern_'
'genuine_'
'generally_'
'gelegen_'
'fund_'
'finally_'
'establishing_'
'endlich_'
'ele'
'eindeutig_'
'details_'
'desire_'
'dengan_'
'core_'
'ches_'
'candidate_'
'calls_'
'bezüglich_'
'bestimmte_'
'bestimmt_'
'begrüße_'
'analysis_'
'aktuelle_'
']], _'
'Zentralbank_'
'Wege_'
'Wasser'
'Vorschriften_'
'Vor'
'Urlaub_'
'Unser_'
'Um'
'Tri'
'Time_'
'Ste'
'Sinne_'
'Selbst_'
'Schritte_'
'Reserve_'
'Rechts'
'Re'
'Open_'
'Nachbarn_'
'Maße_'
'Lebens'
'Last_'
'Haushalts'
'Gaza_'
'Euro'
'En'
'Despite_'
'Congress_'
'Bürgern_'
'Bundes'
'Brexit_'
'Brasilien_'
'Benutzer_'
'Au'
'Anteil_'
'Amsterdam_'
'Amendment_'
'400_'
'“_'
'ßen_'
'zing_'
'worth_'
'worse_'
'wing_'
'vorgeschlagen_'
'transfer_'
'tool_'
'territory_'
'stärken_'
'stated_'
'spirit_'
'spa'
'sent_'
'richtige_'
'release_'
'ps_'
'pro'
'paper_'
'oben_'
'numbers_'
'ned_'
'menu_'
'managed_'
'linked_'
'limits_'
'learn_'
'konzentrieren_'
'kommenden_'
'interesting_'
'interested_'
'identity_'
'helped_'
'größeren_'
'green_'
'gesehen_'
'fixed_'
'fine_'
'fail_'
'fa'
'extension_'
'examples_'
'enormous_'
'encourage_'
'else_'
'dly_'
'district_'
'dennoch_'
'dagegen_'
'cross_'
'criteria_'
'continued_'
'consensus_'
'comfort_'
'buffet_'
'box_'
'books_'
'bonds_'
'beste_'
'behavior_'
'becomes_'
'apartments_'
'animals_'
'adopt_'
'accepted_'
'Zustimmung_'
'Za'
'Worten_'
'Vielleicht_'
'Vertreter_'
'Turkish_'
'Sterne_'
'Saudi_'
'Sache_'
'Risiko_'
'Red_'
'RI'
'Polen_'
'Nice_'
'NEW_'
'Muslim_'
'Meine_'
'Le'
'Konzept_'
'Januar_'
'J_'
'Golf_'
'Einige_'
'Eindruck_'
'Bis_'
'Behandlung_'
'Alternative_'
'Agenda_'
', „_'
'у'
'Überwachung_'
'www_'
'wirtschaftlicher_'
'willing_'
'wer_'
'welfare_'
'warm_'
'voters_'
'verringern_'
'verbundenen_'
'unge'
'understanding_'
'tried_'
'traffic_'
'tomorrow_'
'targets_'
'summer_'
'suggests_'
'sufficient_'
'stronger_'
'st'
'spread_'
'signed_'
'shared_'
'ser_'
'separate_'
'seeking_'
'scope_'
'rten_'
'respond_'
'released_'
'ready_'
'quote_'
'putting_'
'published_'
'protected_'
'pass_'
'on'
'nach'
'modernen_'
'minimum_'
'militärische_'
'mar'
'loss_'
'kennen_'
'ise_'
'integrated_'
'improvement_'
'hear_'
'governance_'
'got_'
'ges_'
'games_'
'führte_'
'flight_'
'fellow_'
'fahren_'
'expensive_'
'exactly_'
'evening_'
'europäischer_'
'era_'
'entweder_'
'eit_'
'ehemaligen_'
'earlier_'
'durch'
'discussed_'
'difficulties_'
'described_'
'damals_'
'crime_'
'conclude_'
'character_'
'camera_'
'broad_'
'außerdem_'
'associated_'
'approved_'
'anti'
'anderem_'
'acht_'
'abge'
'Vorteil_'
'Video_'
'Versuch_'
'USS_'
'Trotz_'
'Tra'
'Solidarität_'
'Sinn_'
'Regime_'
'Präsidentschaft_'
'Prodi_'
'Nachdem_'
'Monat_'
'Modell_'
'Michael_'
'Leute_'
'Ku'
'Ja'
'In'
'III_'
'Her'
'Health_'
'Groß'
'Gegenteil_'
'Entschließung_'
'EZB_'
'Do'
'Clinton_'
'Business_'
'Bilder_'
'Bau'
'Barack_'
'8'
'33_'
'30'
'2014_'
'+_'
'о'
'wert_'
'verpflichtet_'
'ver'
'van_'
'une_'
'unable_'
'ultimately_'
'street_'
'specifically_'
'sicherzustellen_'
'revolution_'
'resolve_'
'reflect_'
'port_'
'planet_'
'placed_'
'phase_'
'pe_'
'pada_'
'otherwise_'
'ones_'
'offering_'
'no'
'morgen_'
'mittel_'
'miteinander_'
'mis'
'millions_'
'measure_'
'machine_'
'läuft_'
'licher_'
'je'
'j'
'io_'
'industrie_'
'host_'
'holding_'
'greatest_'
'gleiche_'
'gelangen_'
'fand_'
'faces_'
'expressed_'
'expansion_'
'ep'
'entsprechenden_'
'entsprechend_'
'ensuring_'
'einiger_'
'dürfte_'
'download_'
'divided_'
'discussions_'
'deliver_'
'continues_'
'continent_'
'comments_'
'color_'
'click_'
'che'
'beginnen_'
'arbeitet_'
'ahead_'
'accession_'
'abzu'
'UNO_'
'Tre'
'Teilen_'
'Standpunkt_'
'Standard_'
'Sicherheits'
'Pe'
'Or'
'Nutzen_'
'No'
'NA'
'Mit'
'Justice_'
'James_'
'Ist_'
'Haltung_'
'Gäste_'
'Ger'
'Gebäude_'
'Ent'
'El_'
'Christian_'
'Bio'
'Ben'
'Beitritt_'
'Ausland_'
'Arbeits'
'Anstieg_'
'75_'
'32_'
'.._'
'%, _'
'” – _'
'ı'
'Ä'
'­_'
'wodurch_'
'window_'
'widely_'
'whatever_'
'west_'
'vorhanden_'
'vollständig_'
'vo'
'veröffentlicht_'
've'
'ul'
'tt_'
'treated_'
'tradition_'
'thereby_'
'stra'
'starke_'
'spent_'
'southern_'
'sources_'
'sort_'
'so'
'slow_'
'skills_'
'sanctions_'
'rural_'
'root_'
'ro_'
'ro'
'regionalen_'
'reception_'
'rapid_'
'profit_'
'priorities_'
'post'
'player_'
'partly_'
'org_'
'operating_'
'offensichtlich_'
'obligations_'
'nie'
'nachdem_'
'link_'
'limit_'
'liberal_'
'ization_'
'individuals_'
'ical_'
'höhere_'
'himself_'
'heutigen_'
'granted_'
'gleich'
'format_'
'followed_'
'firm_'
'expectations_'
'exclusive_'
'erlaubt_'
'equally_'
'entstehen_'
'doesn_'
'detailed_'
'denken_'
'default_'
'cuts_'
'cover_'
'connected_'
'communities_'
'combination_'
'claim_'
'britische_'
'bestand_'
'außer_'
'aten_'
'article_'
'alte_'
'actual_'
'absolutely_'
'Wohn'
'Uni'
'Ungleichheit_'
'Trump_'
'Thus_'
'Systeme_'
'Strategien_'
'Sta'
'Square_'
'Secretary_'
'Schulden'
'Regel_'
'Po'
'Op'
'Ohne_'
'Netherlands_'
'Natur_'
'Nahen_'
'Männer_'
'Mo'
'Me'
'Ma'
'Klima'
'Kindern_'
'Islamic_'
'Homepage_'
'Given_'
'Gesellschaften_'
'Geschäfts'
'Gegensatz_'
'Frankfurt_'
'Firmen_'
'Film_'
'Erachtens_'
'Einrichtungen_'
'Ein'
'Ebenso_'
'Di'
'Car'
'Breakfast_'
'Bildungs'
'Argentina_'
'Ad'
'150_'
'" (_'
' -, _'
'—_'
'über'
'ó'
'Öl'
'  _'
'wieder'
'weg_'
'ures_'
'unver'
'uner'
'ufen_'
'tung_'
'tte_'
'trägt_'
'transition_'
'terrorist_'
'technological_'
'sun_'
'suchen_'
'strategies_'
'someone_'
'smaller_'
'sides_'
'seven_'
'russischen_'
'rt'
'represents_'
'relating_'
'regulatory_'
'pour_'
'picture_'
'permanent_'
'payments_'
'parliamentary_'
'oren_'
'ons'
'offiziellen_'
'oc'
'ns'
'ne'
'nachhaltige_'
'monitoring_'
'ming_'
'mid_'
'maßnahmen_'
'mark_'
'loans_'
'lo_'
'lo'
'listed_'
'leads_'
'languages_'
'land'
'kt_'
'ju'
'ji'
'ite_'
'it'
'inzwischen_'
'introduced_'
'ians_'
'höher_'
'gs'
'geschehen_'
'garden_'
'funktioniert_'
'functions_'
'fuel_'
'französischen_'
'folgenden_'
'ff_'
'ff'
'falsch_'
'enen_'
'discuss_'
'cutting_'
'corporate_'
'contemporary_'
'chi'
'causes_'
'bt_'
'bre'
'berücksichtigt_'
'benutzt_'
'begann_'
'bedarf_'
'bear_'
'battle_'
'bars_'
'auszu'
'ating_'
'as'
'Zur_'
'Zinsen_'
'Währungs'
'Wochen_'
'Volk_'
'Vergleich_'
'Their_'
'Stärkung_'
'Staats'
'Second_'
'San'
'Realität_'
'Projekte_'
'Prioritäten_'
'Nun_'
'MySQL_'
'Mer'
'Lu'
'Leistungen_'
'Krankheiten_'
'Klicken_'
'Instrument_'
'Insel_'
'Hoffnung_'
'Gre'
'God_'
'Fe'
'Falle_'
'Einrichtung_'
'Eastern_'
'Dr_'
'Dennoch_'
'Denn_'
'Democrats_'
'Bewegung_'
'Best_'
'Beschäftigung_'
'Augen_'
'Atmosphäre_'
'Abschluss_'
'9'
'2015_'
'. (_'
', "_'
'„_'
'Über'
'Ökonomen_'
'zation_'
'wrote_'
'write_'
'win_'
'wesentlich_'
'vertreten_'
'verlieren_'
'verfahren_'
'va'
'us'
'unto_'
'unless_'
'ungefähr_'
'unacceptable_'
'umfassende_'
'tz_'
'turning_'
'truth_'
'transparency_'
'traditionellen_'
'tischen_'
'thinking_'
'thanks_'
'tel_'
'tan_'
'talks_'
'swimming_'
'suffer_'
'sub'
'stimmen_'
'stellte_'
'schließen_'
'saving_'
'resulting_'
'represent_'
'relate_'
'ran_'
'r'
'punkt_'
'presidential_'
'perspective_'
'o'
'möglichkeiten_'
'models_'
'migration_'
'meaning_'
'me'
'manage_'
'llen_'
'lebih_'
'laut_'
'laid_'
'komplett_'
'jährlich_'
'industries_'
'increases_'
'ik_'
'icht_'
'ice_'
'hören_'
'ha'
'großes_'
'gi'
'gezwungen_'
'getroffen_'
'geo'
'genannt_'
'ga'
'figures_'
'faced_'
'ey_'
'extensive_'
'erhöht_'
'eingeführt_'
'einander_'
'directives_'
'determined_'
'ded_'
'debates_'
'deaths_'
'daten_'
'contain_'
'closer_'
'cheap_'
'chaft_'
'besondere_'
'berg_'
'behandelt_'
'baren_'
'arms_'
'arbeit_'
'announced_'
'ana'
'amp'
'ah_'
'Unabhängigkeit_'
'Umständen_'
'U'
'Two_'
'Stimmen_'
'Steuer'
'Spieler_'
'Shi'
'SA'
'Royal_'
'Reaktion_'
'Private_'
'Pri'
'Old_'
'Nachfolgend_'
'Na'
'Mitteilung_'
'Mi'
'Kunst_'
'Kritik_'
'Kompromiss_'
'Ke'
'Israelis_'
'Is_'
'Informations'
'IP_'
'ID_'
'Home_'
'Hinsicht_'
'Haupt'
'Gra'
'Gold_'
'Go'
'Gesetz_'
'Forschungs'
'Ereignisse_'
'Engagement_'
'EADS_'
'Binnenmarkt_'
'Beschreibung_'
'Basis_'
'Apartments_'
'Amt_'
'Alliance_'
'Air_'
'AIDS_'
'1997_'
'1996_'
'1995_'
'14'
'01_'
''._'
' ... _'
'и'
'е'
'äu'
'ä'
'á_'
'Über_'
'zimmer_'
'wollte_'
'weltweite_'
'weiterer_'
'verloren_'
'vergessen_'
'unseres_'
'unlikely_'
'truly_'
'track_'
'teilweise_'
'supporting_'
'suffering_'
'stress_'
'strengthen_'
'starting_'
'stands_'
'standing_'
'sit'
'signal_'
'selbstverständlich_'
'ries_'
'restrictions_'
'radical_'
'prosperity_'
'proper_'
'piece_'
'physical_'
'persönlichen_'
'ourselves_'
'ort_'
'older_'
'ok_'
'nes_'
'möglichen_'
'moving_'
'mehreren_'
'medium_'
'materials_'
'maintained_'
'lu'
'lten_'
'll'
'lichkeit_'
'leistungen_'
'ld_'
'laws_'
'langen_'
'kle'
'kaufen_'
'ire_'
'introduction_'
'introduce_'
'intervention_'
'internationaler_'
'inside_'
'ing'
'independence_'
'imports_'
'humanitarian_'
'housing_'
'historische_'
'guidelines_'
'größer_'
'gold_'
'gerecht_'
'gave_'
'gar'
'g'
'fo'
'flexible_'
'flexibility_'
'fire_'
'fields_'
'expression_'
'exist_'
'except_'
'eventually_'
'euch_'
'erten_'
'entry_'
'enterprises_'
'ene_'
'employees_'
'emphasis_'
'eln_'
'ee_'
'duty_'
'dir_'
'dia'
'delegation_'
'danach_'
'criminal_'
'conflicts_'
'combat_'
'collapse_'
'coffee_'
'claims_'
'cat'
'carefully_'
'car'
'bottom_'
'bestehenden_'
'begrüßen_'
'automatisch_'
'asset_'
'armed_'
'anyone_'
'angeht_'
'and'
'ad_'
'abhängig_'
'Y'
'Wissenschaft_'
'Wein'
'Volks'
'Verpflichtung_'
'Vereinbarung_'
'Teile_'
'THE_'
'Staates_'
'Soviet_'
'Sorgen_'
'Sehr_'
'Sehenswürdigkeiten_'
'Rotary_'
'Ro'
'Ri'
'Produktions'
'Ne'
'Name_'
'NI_'
'La'
'Korruption_'
'Irish_'
'Investitions'
'Initiativen_'
'IS'
'Hotel'
'Hintergrund_'
'Haushalt_'
'Forderung_'
'Dra'
'Copenhagen_'
'Chi'
'Can_'
'Bur'
'Beispiele_'
'Bau_'
'Barroso_'
'Bar'
'Aufgrund_'
'Aufbau_'
'Aspekt_'
'Anfrage_'
'36_'
'. – _'
' = _'
'ée_'
'ß'
'Ägypten_'
'zusätzlich_'
'welches_'
'warming_'
'wa'
'w'
'victory_'
'ven_'
'unbe'
'ub'
'tu'
'tests_'
'tasks_'
'tar'
'suffered_'
'struggle_'
'shops_'
'seriously_'
'selected_'
'riesigen_'
'resort_'
'rer_'
'remember_'
'relatively_'
'rechts_'
'pursue_'
'purchase_'
'politisch_'
'playing_'
'phrase_'
'peaceful_'
'olitik_'
'obvious_'
'nisse_'
'ni'
'ng'
'nennen_'
'mer'
'looks_'
'launch_'
'laufen_'
'laden_'
'kürzlich_'
'ked_'
'ina'
'implementing_'
'hauptsächlich_'
'happy_'
'ha_'
'gutes_'
'grundlegende_'
'geändert_'
'gerne_'
'gelten_'
'fähigkeit_'
'fresh_'
'fish_'
'erzielen_'
'erinnern_'
'erhält_'
'equivalent_'
'entirely_'
'email_'
'economists_'
'dynamic_'
'driving_'
'do'
'diplomatic_'
'declaration_'
'database_'
'counter_'
'corruption_'
'contrast_'
'completed_'
'collective_'
'cher'
'calling_'
'benötigt_'
'benutzen_'
'barkeit_'
'ausschließlich_'
'asylum_'
'anstatt_'
'animal_'
'angezeigt_'
'al'
'agen_'
'ach_'
'Zunächst_'
'Zi'
'Würde_'
'Vo'
'Verbindungen_'
'Unterschied_'
'Unfortunately_'
'Syrien_'
'Städte_'
'SE'
'Rück'
'Pro_'
'Post'
'Pi'
'Organisationen_'
'Neben_'
'Mitgliedschaft_'
'Mitarbeiter_'
'Mexiko_'
'Merkel_'
'Men'
'Medien_'
'Mal'
'Live_'
'Leistungs'
'Landwirtschaft_'
'Kultur'
'Krieges_'
'Je'
'Internationalen_'
'Institute_'
'He'
'Han'
'Gesetze_'
'Front_'
'Foundation_'
'Fortschritt_'
'Fort'
'Formen_'
'February_'
'Familien'
'Erde_'
'Entwicklungsländern_'
'EC_'
'Du_'
'Computer_'
'CAMBRIDGE_'
'Bre'
'Bra'
'Board_'
'Bo'
'Beziehung_'
'Atom'
'Arten_'
'Another_'
'Angriff_'
'48_'
'13'
' /_'
'”._'
'”, _'
'т'
'р'
'és_'
'zuvor_'
'zufolge_'
'zahlreichen_'
'verlangen_'
'verantwortlich_'
'umzusetzen_'
'trend_'
'translation_'
'tor'
'tly_'
'terrace_'
'teilen_'
'ständig_'
'stations_'
'starken_'
'staatliche_'
'spacious_'
'sofort_'
'ski_'
'sin'
'siehe_'
'shower_'
'sets_'
'selection_'
'sektor_'
'seemed_'
'science_'
'rr'
'ri_'
'responsibilities_'
'relax_'
'rasch_'
'promoting_'
'por_'
'platz_'
'partnership_'
'parliament_'
'ou'
'oral_'
'opened_'
'ongoing_'
'onen_'
'nf'
'nar'
'min_'
'methods_'
'meetings_'
'mechanism_'
'machte_'
'learning_'
'labour_'
'keits'
'ish_'
'ionen_'
'installation_'
'ill_'
'ierungs'
'ier'
'ied_'
'ide_'
'houses_'
'goals_'
'gegenwärtig_'
'garantiert_'
'französische_'
'finanzielle_'
'figure_'
'faster_'
'ergreifen_'
'erfolgen_'
'entwickelten_'
'entered_'
'eingesetzt_'
'ehen_'
'dollars_'
'display_'
'defined_'
'darunter_'
'danger_'
'dalam_'
'crimes_'
'contract_'
'constitutional_'
'constitution_'
'commitments_'
'charged_'
'cancer_'
'bu'
'bly_'
'biggest_'
'beruht_'
'believed_'
'beds_'
'beachten_'
'balanced_'
'assets_'
'ar'
'anzu'
'allowing_'
'advance_'
'administrative_'
'ade'
'accordance_'
']] [[_'
'\\_'
'Your_'
'Wissen_'
'Wegen_'
'Waren_'
'Vietnam_'
'Verpflichtungen_'
'Verhältnis_'
'Verfassungs'
'Tradition_'
'TA'
'Straße_'
'Stadt'
'Schäden_'
'SI'
'Q_'
'Pre'
'Paul_'
'Pacific_'
'NE'
'Monetary_'
'Miss'
'Militär'
'Königreich_'
'Kopf_'
'Kapital'
'Irland_'
'Inseln_'
'Hong_'
'Hoch'
'Hause_'
'HIV_'
'HA'
'Grenze_'
'Geld'
'Familien_'
'Fahr'
'Every_'
'Entwicklungs'
'Einklang_'
'Drittens_'
'Dar'
'DI'
'Click_'
'Chancen_'
'Cha'
'Ce'
'Bus'
'Angst_'
'Anerkennung_'
'Abend_'
'95_'
'64_'
'1989_'
'', _'
'ст'
'а'
'ür'
'ör'
'í'
'wiederum_'
'weg'
'wages_'
'verfolgen_'
'under'
'um'
'ual_'
'tre'
'tive_'
'ti_'
'summit_'
'sla'
'significantly_'
'severe_'
'schlagen_'
'scha'
'sagt_'
'sa'
'rin_'
'reservation_'
'reported_'
'rely_'
'rejected_'
'recognize_'
'rechts'
'recession_'
'race_'
'qua'
'prime_'
'pri'
'plants_'
'pictures_'
'persons_'
'par'
'owned_'
'ou_'
'organisations_'
'opposite_'
'obviously_'
'north_'
'ngs_'
'ngs'
'nder_'
'nationaler_'
'named_'
'moved_'
'mm_'
'micro'
'memory_'
'manchmal_'
'love_'
'ln_'
'lessons_'
'ld'
'ki_'
'ker'
'iten_'
'ischer_'
'ir'
'initial_'
'hn_'
'helping_'
'hei'
'he'
'guaranteed_'
'gesprochen_'
'gemäß_'
'geleistet_'
'funktionieren_'
'founded_'
'formal_'
'fisheries_'
'finanziellen_'
'fe_'
'fat'
'extended_'
'extend_'
'explain_'
'experts_'
'essentially_'
'entschieden_'
'entscheidender_'
'durchaus_'
'du'
'drugs_'
'drug_'
'dra'
'diseases_'
'deutsche_'
'cuisine_'
'courses_'
'couple_'
'cor'
'contrary_'
'closely_'
'charges_'
'cha'
'cer'
'cast_'
'capable_'
'candidates_'
'bound_'
'ber'
'ban_'
'außerordentlich_'
'außen_'
'aufzu'
'aufge'
'argue_'
'appeal_'
'anderes_'
'alliance_'
'allgemeine_'
'ages_'
'ag_'
'achten_'
'absolute_'
'ab'
'a'
'Wähler_'
'West'
'Washington_'
'Verhalten_'
'Untersuchung_'
'Umwelt'
'Transport_'
'Teil'
'Steuern_'
'Sprache_'
'Sol'
'Si'
'Se'
'Schule_'
'SS_'
'Rezeption_'
'Report_'
'Quelle_'
'Q'
'Perhaps_'
'Pa'
'PT_'
'PHP_'
'Niveau_'
'Ni'
'Mu'
'Mat'
'Luft'
'Located_'
'Liberalisierung_'
'Leistung_'
'Las_'
'LI'
'Kong_'
'Kern'
'Jetzt_'
'Instrumente_'
'Hälfte_'
'Grund'
'Gesundheits'
'Generation_'
'Gegen'
'Gebieten_'
'Flug'
'Finanzkrise_'
'Far'
'Daten'
'Cameron_'
'Berichts_'
'Bei'
'BMW_'
'Auto'
'Ausweitung_'
'Ausbildung_'
'Aufenthalt_'
'Anstrengungen_'
'Anforderungen_'
'Am'
'Altstadt_'
'Al'
'Administration_'
'AR'
'39_'
'25'
'15'
'11'
' — _'
' –, _'
'ы'
'überprüfen_'
'ón_'
'é'
'è'
'äre_'
'Öl_'
'yourself_'
'wine_'
'wi'
'wenigen_'
'welt'
'weiteres_'
'weight_'
'war'
'vulnerable_'
'voice_'
'verlassen_'
'verfolgt_'
'vast_'
'usw_'
'urgent_'
'ungs'
'tä'
'ti'
'the'
'tahun_'
'supports_'
'studies_'
'structures_'
'ss'
'species_'
'south_'
'solve_'
'smoking_'
'sitting_'
'sierung_'
'ships_'
'sharing_'
'session_'
'select_'
'seien_'
'season_'
'schneller_'
'remove_'
'relative_'
'recommend_'
'reaching_'
'rd'
'prüfen_'
'provision_'
'proved_'
'prospects_'
'promotion_'
'promise_'
'practices_'
'positions_'
'photos_'
'photo_'
'per'
'pension_'
'out'
'ot_'
'op'
'occur_'
'nta'
'nis'
'names_'
'nahme_'
'mutual_'
'musste_'
'mountain_'
'minority_'
'mer_'
'losses_'
'lly_'
'li'
'lesen_'
'legt_'
'leaving_'
'langfristige_'
'l'
'kurzem_'
'kitchen_'
'kar'
'jener_'
'ized_'
'improvements_'
'images_'
'ia'
'hundreds_'
'honourable_'
'ho'
'gung_'
'gre'
'gender_'
'gegenwärtigen_'
'führenden_'
'fällt_'
'frühen_'
'fighting_'
'felt_'
'fe'
'eye_'
'expense_'
'expenditure_'
'exists_'
'exercise_'
'eu'
'ethnic_'
'et'
'ered_'
'er'
'equality_'
'enorme_'
'elegant_'
'einzigen_'
'einge'
'einfache_'
'eh'
'dy_'
'dritten_'
'dinner_'
'defend_'
'defence_'
'dank_'
'currencies_'
'criticism_'
'crises_'
'compatible_'
'co'
'budgetary_'
'bildet_'
'beziehen_'
'berücksichtigen_'
'belief_'
'automatically_'
'austerity_'
'aus'
'auf'
'arrival_'
'arrangements_'
'arabischen_'
'ad'
'Wunsch_'
'Worte_'
'Voraussetzungen_'
'Vielzahl_'
'Verwaltungs'
'Val'
'Treffen_'
'Times_'
'Thank_'
'Süd'
'Sweden_'
'Stu'
'Stil_'
'Stand_'
'Sohn_'
'Serbia_'
'See_'
'Schlüssel'
'Schluss_'
'Sanktionen_'
'Sand'
'Safety_'
'Rome_'
'Roman_'
'Regulation_'
'Rede_'
'Rechtsvorschriften_'
'Prozesses_'
'Phase_'
'Ph'
'Patienten_'
'NT'
'Monate_'
'Mindest'
'MO'
'Krisen'
'Kontakt_'
'Konflikt_'
'Klimawandel_'
'Kind_'
'Ju'
'Jean_'
'Iraqi_'
'Größe_'
'Gleichzeitig_'
'Gi'
'Gespräche_'
'Gemeinschafts'
'Fähigkeit_'
'Friedens'
'Forderungen_'
'Fonds_'
'Faktoren_'
'Erhöhung_'
'El'
'Ei'
'Durchführung_'
'De_'
'David_'
'Dann_'
'Buch_'
'Ber'
'Beide_'
'Bank'
'Bal'
'Bahn_'
'Aspekte_'
'Anwendungen_'
'Anspruch_'
'Agreement_'
'80'
'65_'
'.“ _'
'з'
'ären_'
'á'
'zählen_'
'zuge'
'wor'
'wirksam_'
'wichtigste_'
'westlichen_'
'weak_'
'vieler_'
'verstanden_'
'unter'
'universal_'
'und'
'unabhängig_'
'umfassenden_'
'turns_'
'tourist_'
'touch_'
'tit'
'testing_'
'tan'
'surrounding_'
'super'
'sugar_'
'subsidies_'
'sti'
'spielt_'
'sor'
'sonst_'
'soft_'
'societies_'
'sieben_'
'serves_'
'sea'
'schreiben_'
'scheme_'
'russische_'
'richten_'
'representative_'
'remained_'
'reicht_'
'recognise_'
'ra'
'productive_'
'pra'
'po'
'pick_'
'peoples_'
'pen'
'payment_'
'participate_'
'parliaments_'
'parents_'
'pan'
'over'
'origin_'
'organizations_'
'or'
'mu'
'motion_'
'mode_'
'mittlerweile_'
'miss'
'militärischen_'
'maximum_'
'manner_'
'mandate_'
'lovely_'
'lokalen_'
'lity_'
'lesson_'
'le'
'lan'
'la'
'kulturelle_'
'krise_'
'kraft_'
'konkrete_'
'killed_'
'kept_'
'keinerlei_'
'jo'
'institution_'
'inequality_'
'ici'
'hy'
'households_'
'hostels_'
'hit_'
'har'
'griechischen_'
'gla'
'gestimmt_'
'freiheit_'
'for'
'focused_'
'fit_'
'fen'
'father_'
'factors_'
'extreme_'
'exit_'
'ended_'
'emergency_'
'element_'
'ef'
'east_'
'discovered_'
'differences_'
'destruction_'
'demokratische_'
'da'
'ct_'
'covered_'
'coordination_'
'consideration_'
'confirmed_'
'command_'
'choices_'
'cho'
'ce'
'buildings_'
'brings_'
'bility_'
'bestätigen_'
'bestimmen_'
'beaches_'
'bath_'
'ausreichend_'
'ausgesetzt_'
'ausdrücklich_'
'aufnehmen_'
'attractive_'
'ati'
'apart_'
'ang'
'andererseits_'
'alt_'
'allgemein_'
'aktiv_'
'aims_'
'ai'
'ably_'
'Ziel'
'Zeitraum_'
'Wo'
'Wirkung_'
'Weltbank_'
'War'
'Vom_'
'Verwaltung_'
'Venezuela_'
'Var'
'Unter'
'Umfang_'
'Tour_'
'Tor'
'To'
'Stellung_'
'Sat'
'Santa_'
'Saddam_'
'SQL_'
'Russlands_'
'Roma_'
'Richtlinien_'
'Regelung_'
'Rechts_'
'Real'
'Pu'
'Produkt'
'Priorität_'
'Pen'
'Other_'
'Option_'
'Mas'
'Mar'
'MI'
'Leit'
'Leider_'
'Lei'
'Lebanon_'
'Kyoto_'
'Krankheit_'
'Kinder'
'Kan'
'Ka'
'Justiz_'
'Jeder_'
'Hel'
'Hauptstadt_'
'Ha'
'Gründe_'
'Green_'
'Gemeinsamen_'
'Führer_'
'Funktionen_'
'Find_'
'Februar_'
'FR_'
'Emissionen_'
'Einwohner_'
'Each_'
'Dadurch_'
'Charakter_'
'Ca'
'Brüssel_'
'Beschäftigungs'
'Berichterstatterin_'
'Begriff_'
'Beach_'
'BA'
'Austrian_'
'Aussicht_'
'Aufgaben_'
'Auf'
'Arm'
'23'
'21'
'1945_'
'1'
' ('
'ös'
'Übereinstimmung_'
'zeit'
'za_'
'yesterday_'
'work'
'wirtschaftlich_'
'wirtschaft_'
'wagen_'
'wachsende_'
'vous_'
'vorge'
'verstärken_'
'unterschiedliche_'
'uni'
'tzen_'
'trotzdem_'
'trifft_'
'temporary_'
'talking_'
'systeme_'
'surrounded_'
'supposed_'
'succeed_'
'substances_'
'su'
'sovereignty_'
'sha'
'sell_'
'seitens_'
'schools_'
'rs'
'rn'
'rischen_'
'returns_'
'rental_'
'remote_'
'reich_'
'referred_'
'referendum_'
'reden_'
'records_'
'recognition_'
'radio_'
'quick_'
'properly_'
'producers_'
'processes_'
'prevention_'
'pp'
'pie'
'patients_'
'packages_'
'pa'
'osi'
'ordinary_'
'müssten_'
'myself_'
'mussten_'
'multi'
'mo'
'menschlichen_'
'meist_'
'markt_'
'malaria_'
'mal'
'losing_'
'looked_'
'legitimate_'
'langsam_'
'lage_'
'keiner_'
'keeping_'
'intellectual_'
'instance_'
'informiert_'
'informed_'
'imposed_'
'impose_'
'import_'
'immigrants_'
'imagine_'
'igung_'
'iger_'
'iel'
'hä'
'heiten_'
'guide_'
'gruppe_'
'grow_'
'golf_'
'globalization_'
'ght_'
'geschützt_'
'gel'
'gap_'
'ft'
'früher_'
'flows_'
'flat_'
'finanziert_'
'feststellen_'
'fell_'
'explanation_'
'ex_'
'ernst_'
'eri'
'erfolg'
'enz'
'entschlossen_'
'enabling_'
'emphasise_'
'ek_'
'eight_'
'edi'
'economics_'
'dunia_'
'don'
'division_'
'discover_'
'devices_'
'device_'
'detail_'
'derzeitigen_'
'depends_'
'demanding_'
'definition_'
'deeply_'
'cycle_'
'cu'
'cri'
'consultation_'
'conducted_'
'concluded_'
'compensation_'
'combined_'
'colleague_'
'coal_'
'cies_'
'centuries_'
'cars_'
'cards_'
'bringing_'
'born_'
'bon'
'blocks_'
'block_'
'bezeichnet_'
'beschlossen_'
'bemüht_'
'beigetragen_'
'bee'
'back'
'ausgaben_'
'attempts_'
'assume_'
'asking_'
'arguments_'
'ard_'
'appeared_'
'ancient_'
'alt'
'allgemeinen_'
'ahmen_'
'agency_'
'ada_'
'Zusammenbruch_'
'Zentralbanken_'
'Wohlstand_'
'Will_'
'Widerstand_'
'Wahl'
'Villa_'
'Very_'
'Verlust_'
'VO'
'Unternehmens'
'Trek_'
'Ton'
'Tod_'
'Test'
'Ta'
'Straßen'
'Standard'
'Sprachen_'
'Speicher'
'Sonder'
'Skype_'
'Sieg_'
'Rückgang_'
'Risiko'
'Que'
'Problemen_'
'Praxis_'
'Partnerschaft_'
'Ordnung_'
'OS_'
'OR_'
'Not'
'Nord'
'Nobel_'
'Nevertheless_'
'Musik'
'Menschenrechts'
'Media_'
'Mann_'
'Macht'
'MA'
'Lebens_'
'Kriterien_'
'Kommunikation_'
'Kombination_'
'Karte_'
'Island_'
'Inhalt_'
'Industrie'
'Identität_'
'IT'
'Hostel_'
'Handels_'
'Grunde_'
'Geschäftsordnung_'
'Geldpolitik_'
'Foto_'
'Foreign_'
'Fax_'
'Experten_'
'Entwurf_'
'End'
'Ed'
'Download_'
'Direkt'
'Dimension_'
'Dass_'
'DE'
'Control_'
'Cho'
'Bos'
'Balkan_'
'Analyse_'
'Allgemeinen_'
'Ale'
'Ala'
'Akteure_'
'Absch'
'@_'
'42_'
'192'
'12'
') '
'™ _'
'м'
'übernommen_'
'ö'
'zurückge'
'zero_'
'zentralen_'
'wünschen_'
'werk_'
'weit'
'virtually_'
'village_'
'verbessert_'
'unternommen_'
'unmittelbar_'
'unde'
'umfasst_'
'täglich_'
'tut_'
'ts'
'title_'
'tier'
'tera'
'telephone_'
'te'
'substantial_'
'stre'
'stance_'
'ssi'
'square_'
'sprach_'
'sports_'
'spa_'
'sovereign_'
'sme'
'sized_'
'sion_'
'sicherlich_'
'sensitive_'
'senior_'
'schönen_'
'sage_'
'represented_'
'relaxing_'
'rei'
'registered_'
'reflects_'
'rat_'
'rage_'
'quantitative_'
'profits_'
'producing_'
'print_'
'pi'
'perfectly_'
'pan_'
'overcome_'
'ond'
'niemand_'
'newly_'
'nder'
'nan'
'na'
'mor'
'ministers_'
'med_'
'match_'
'mas'
'marketing_'
'macroeconomic_'
'les'
'ler'
'len'
'launched_'
'kulturellen_'
'klare_'
'ki'
'issued_'
'isierung_'
'install_'
'incentives_'
'ik'
'identify_'
'ian'
'household_'
'hot_'
'hip_'
'hinweisen_'
'hi'
'hel'
'heits'
'head'
'hardly_'
'hand'
'han_'
'guter_'
'groß_'
'gewählt_'
'gewissen_'
'gewisse_'
'gestalten_'
'ge'
'garantieren_'
'gan_'
'gained_'
'führende_'
'furniture_'
'formed_'
'forget_'
'flow_'
'finding_'
'fel'
'federal_'
'farming_'
'exclusively_'
'est'
'erstellt_'
'erklärte_'
'ering_'
'ergeben_'
'erfahren_'
'engineering_'
'elle_'
'electricity_'
'ek'
'einzusetzen_'
'ear'
'distributed_'
'disputes_'
'destroyed_'
'deserves_'
'del'
'decide_'
'dealing_'
'crew_'
'contribute_'
'continuing_'
'concrete_'
'comment_'
'combating_'
'cohesion_'
'club_'
'button_'
'bur'
'broader_'
'briefly_'
'brachte_'
'boom_'
'blood_'
'ble'
'bla'
'bezahlen_'
'bewegen_'
'besseren_'
'ban'
'ball_'
'background_'
'auto'
'atau_'
'at'
'argument_'
'ara_'
'appreciate_'
'ans'
'ank'
'angeboten_'
'an'
'ama'
'afternoon_'
'ae'
'accounts_'
'accompanied_'
'accessible_'
'Z_'
'Wandel_'
'Wahrheit_'
'Wachstums'
'Volkes_'
'Unterschiede_'
'Umfeld_'
'Texte_'
'Teilnahme_'
'Suche_'
'Studie_'
'Straf'
'Sprach'
'Sport_'
'Spar'
'Sha'
'Selbst'
'Sein_'
'School_'
'Schaden_'
'Sarkozy_'
'Runde_'
'Ru'
'Reform'
'Politik'
'Perspektive_'
'Over_'
'Nutzer_'
'Nein_'
'Nach'
'Menge_'
'Meiner_'
'Madrid_'
'Li'
'Law_'
'Lateinamerika_'
'Kredit'
'Kor'
'Kontroll'
'Kon'
'King_'
'Kenntnis_'
'Jedes_'
'Jahres'
'IN'
'Hinweis_'
'Hill_'
'Grundrechte_'
'Grad_'
'Good_'
'Gerichtshof_'
'FI'
'Entwicklungsländer_'
'Enjoy_'
'Einzel'
'Eigen'
'Earth_'
'ES'
'ER'
'Deutsche_'
'Dan'
'DA'
'Cre'
'Con'
'Charta_'
'Cap'
'CO'
'Bus_'
'Budget_'
'Bri'
'Book_'
'Bon'
'Bi'
'Beihilfen_'
'Bay_'
'Bas'
'Ausnahme_'
'Armee_'
'Apple_'
'Antrag_'
'Anreize_'
'Airbus_'
'AN'
'AG_'
': “_'
'44_'
'194'
'190'
'188'
' €_'
'де'
'д'
'zurück'
'zugleich_'
'zufrieden_'
'zo'
'zi'
'ysteme_'
'yo'
'xi'
'wind_'
'wie'
'widespread_'
'weiter'
'vorschlagen_'
'vorher_'
'vorgelegt_'
'vor'
'verändert_'
'verstärkt_'
'verdient_'
'vehicles_'
'usual_'
'unit_'
'una_'
'u'
'tz'
'transfers_'
'traditionelle_'
'tisch_'
'tis'
'ther_'
'th'
'technischen_'
'technische_'
'survive_'
'surplus_'
'super_'
'suite_'
'statements_'
'spring_'
'sold_'
'sobald_'
'sit_'
'ser'
'secret_'
'seats_'
'schwe'
'scheinen_'
'sch'
'runs_'
'rung_'
'roads_'
'rit'
'rin'
'rf'
'rein_'
'regardless_'
'refugee_'
'recognized_'
'rch'
'railway_'
'push_'
'purposes_'
'protecting_'
'promised_'
'processing_'
'proc'
'primarily_'
'precise_'
'politisches_'
'platform_'
'persönlich_'
'permitted_'
'paragraph_'
'organization_'
'ora'
'onto_'
'oni'
'ona'
'olo'
'ok'
'offizielle_'
'occasions_'
'ob'
'nötig_'
'nts_'
'nte_'
'notwendigen_'
'normalerweise_'
'nord'
'niemals_'
'nearby_'
'ndo_'
'naturally_'
'müsste_'
'museums_'
'mostly_'
'mini_'
'mini'
'metro_'
'metres_'
'mental_'
'mechanisms_'
'meant_'
'länder_'
'lä'
'luxurious_'
'lt'
'lp'
'liquidity_'
'lim'
'li_'
'leisure_'
'lei'
'learned_'
'lay_'
'law'
'latter_'
'kti'
'journalists_'
'jeweils_'
'involve_'
'intensive_'
'initially_'
'ini'
'ingly_'
'impressive_'
'implications_'
'id_'
'höheren_'
'höchsten_'
'ht'
'hostel_'
'hoher_'
'hl'
'hinzu'
'gruppen_'
'go'
'gli'
'gewährleistet_'
'gewa'
'gespielt_'
'gegründet_'
'gegenwärtige_'
'gefallen_'
'ged_'
'führung_'
'fun_'
'forum_'
'fordert_'
'fied_'
'festgelegt_'
'fer'
'feed_'
'fantastic_'
'eyes_'
'existence_'
'excessive_'
'erwiesen_'
'erscheinen_'
'erleben_'
'erfolgreichen_'
'endorse_'
'electronic_'
'einsetzen_'
'eingerichtet_'
'eingehen_'
'ei'
'ehr'
'effectiveness_'
'dé'
'dri'
'diversity_'
'disaster_'
'determine_'
'den'
'danke_'
'correct_'
'convenient_'
'condition_'
'communications_'
'coast_'
'cing_'
'chief_'
'cation_'
'category_'
'booking_'
'bitten_'
'beobachten_'
'bedroom_'
'availability_'
'ausgesprochen_'
'ausge'
'aufzunehmen_'
'army_'
'ari'
'apa'
'ante_'
'anbieten_'
'agencies_'
'aff'
'addressing_'
'ace'
'aba'
']]_'
'Zweiten_'
'Zeit'
'YORK_'
'Women_'
'Within_'
'Wirklichkeit_'
'Willen_'
'Wieder'
'White_'
'Web'
'WI'
'Völker_'
'Verteidigung_'
'Verkehr_'
'Vereinbarungen_'
'Verbrechen_'
'Ur'
'Trans'
'Those_'
'Test_'
'Tau'
'Taiwan_'
'Tages_'
'TNG_'
'TI'
'Städten_'
'Studien_'
'Spiele_'
'Son'
'Sommer_'
'Sind_'
'Sin'
'She'
'Seine_'
'Schul'
'SP'
'Rou'
'Regimes_'
'Rahmen'
'RA'
'Prä'
'Protokoll_'
'Problems_'
'Prinzipien_'
'Premierminister_'
'Preis'
'Plaza_'
'Pin'
'Pan'
'Page_'
'PS'
'Opposition_'
'ON'
'Nor_'
'Neben'
'Muslims_'
'Mon'
'Mitteln_'
'Meanwhile_'
'Location_'
'Lin'
'Libanon_'
'Lassen_'
'Lang'
'LONDON_'
'Kriegs'
'Kredite_'
'Konsens_'
'Kommunikations'
'Klimaanlage_'
'Klein'
'Kirk_'
'JavaScript_'
'Jahrzehnten_'
'Iranian_'
'Ideen_'
'IC'
'Holz'
'Glaubwürdigkeit_'
'Gefühl_'
'Gefahren_'
'Gedanken_'
'For'
'Facilities_'
'Executive_'
'Erwartungen_'
'Erklärungen_'
'Erd'
'Doha_'
'Des'
'Depression_'
'Data_'
'Czech_'
'Cuba_'
'Chile_'
'Bä'
'Beweis_'
'Bedenken_'
'Ban'
'Bade'
'BE'
'Apartment_'
'Absicht_'
'AP'
'AM'
'> _'
'800_'
'52_'
'1991_'
'16'
'10'
'05_'
'00'
'.” _'
'.“_'
'."_'
','
' € _'
' > _'
'“'
'қа'
'я'
'к'
'в'
'б'
'č_'
'übrigen_'
'übertragen_'
'überrascht_'
'öffentlich_'
'än'
'Überprüfung_'
'Österreich_'
'zentrum_'
'ys'
'yr'
'wirken_'
'winter_'
'wesentlichen_'
'welcher_'
'wars_'
'warning_'
'wage_'
'wa_'
'volle_'
'verwende_'
'verurteilt_'
'vehicle_'
'ur'
'update_'
'unity_'
'uk'
'uer'
'tting_'
'tt'
'troops_'
'tourism_'
'tionen_'
'tet_'
'tend_'
'temp'
'taste_'
'tal'
'sustainability_'
'strengthening_'
'store_'
'stone_'
'sterben_'
'ster'
'steigern_'
'stattfinden_'
'sser'
'sport_'
'spoke_'
'spectrum_'
'sought_'
'solcher_'
'sodass_'
'situations_'
'sing'
'signs_'
'sight_'
'sel'
'seite_'
'schwierigen_'
'schriftlich_'
'scher_'
'ré'
'rti'
'rg_'
'returned_'
'resource_'
'resolved_'
'replaced_'
'regular_'
'rat'
'ption_'
'propose_'
'prior_'
'preis'
'plenty_'
'pleasure_'
'planned_'
'piel'
'phi'
'personally_'
'pattern_'
'outdoor_'
'ought_'
'ordnung_'
'opposed_'
'opinions_'
'ome'
'offenen_'
'of'
'oe'
'ode'
'nu'
'nten_'
'nte'
'nk_'
'nen'
'nb'
'möglichst_'
'mö'
'mon'
'mix_'
'mat'
'ma'
'ländlichen_'
'luxury_'
'lla'
'lis'
'letzter_'
'künftige_'
'kostenlos_'
'konzentriert_'
'ko_'
'knows_'
'kleiner_'
'kamen_'
'jam'
'itu'
'ina_'
'ile_'
'hoffen_'
'hof_'
'hing_'
'her'
'halt_'
'gu'
'grundlegenden_'
'greenhouse_'
'greatly_'
'gone_'
'glo'
'gezogen_'
'gerichtet_'
'gelungen_'
'gehalten_'
'gan'
'fruit_'
'freue_'
'fla'
'fi'
'fairly_'
'experienced_'
'essen_'
'ersch'
'erm'
'erg'
'erforderlichen_'
'enormen_'
'enk'
'eni'
'eng_'
'ende'
'ences_'
'enabled_'
'elite_'
'electoral_'
'eil'
'durchzuführen_'
'drop_'
'drei'
'dishes_'
'dining_'
'dienen_'
'derart_'
'depend_'
'delivered_'
'definiert_'
'customer_'
'convinced_'
'considering_'
'client_'
'chain_'
'cas'
'ca'
'bul'
'budgets_'
'break'
'bo'
'black_'
'bin'
'besitzt_'
'beschäftigt_'
'bekämpfen_'
'basiert_'
'ay_'
'author_'
'ationen_'
'art'
'ano'
'ana_'
'ambitious_'
'ale'
'akzeptiert_'
'aka'
'ai_'
'ah'
'afrikanischen_'
'adoption_'
'adjustment_'
'acts_'
'acceptable_'
'absence_'
'abgeschlossen_'
'abe_'
'[[_'
'Zug'
'Ziffer_'
'Zer'
'Zentral'
'Win'
'Weitere_'
'Wa'
'WLAN_'
'Vorbereitung_'
'Vienna_'
'Verkehrs'
'Verhandlungs'
'Verb'
'Us'
'Ti'
'Ter'
'Tele'
'Tar'
'Swedish_'
'Summit_'
'Strukturen_'
'Stellen_'
'Stadtzentrum_'
'Sport'
'Spitze_'
'Spiel'
'Special_'
'Sollte_'
'Sel'
'Science_'
'Sche'
'Samsung_'
'Saint_'
'Saa'
'Rest'
'Research_'
'Reise_'
'Pay'
'Palästinenser_'
'Paket_'
'Optionen_'
'Ob'
'ON_'
'Mittelpunkt_'
'Mittelmeer_'
'Mission_'
'Ministerpräsident_'
'Minderheiten_'
'Mel'
'Maß_'
'Martin_'
'Mac'
'MEPs_'
'Los_'
'Körper_'
'Kräfte_'
'Konvent_'
'Kil'
'Kar'
'Kandidaten_'
'Java_'
'Japans_'
'Hal'
'Gu'
'GmbH_'
'General'
'Gebiete_'
'Garten_'
'Fähigkeiten_'
'Firstly_'
'Fernsehen_'
'Fach'
'Export'
'Ex'
'Eisenbahn'
'EL'
'EA'
'Druck'
'Dor'
'Der'
'DS'
'Ci'
'Chris_'
'Chinesen_'
'Check_'
'Che'
'Char'
'CIA_'
'CH'
'Botschaft_'
'Bor'
'Bewertung_'
'Bel'
'Ball'
'Back'
'BI'
'Atlantic_'
'Argentinien_'
'Angelegenheit_'
'Amerikaner_'
'Alt'
'Aktien'
'Ag'
'Abschließend_'
'Ab'
'AT'
'AC'
'?'
'5'
'47_'
'193'
'06_'
'03_'
'"'
'!'
'і'
'п'
'ни'
'н'
'л'
'ück'
'ía_'
'äge_'
'Ö'
'zweifellos_'
'zusätzlichen_'
'zustimmen_'
'zahl'
'welt_'
'weather_'
'wave_'
'wall_'
'waiting_'
'wait_'
'wachsenden_'
'vorgesehenen_'
'vorgeschlagenen_'
'visitors_'
'vir'
'verteidigen_'
'verleihen_'
'ust'
'uss_'
'urs_'
'unmöglich_'
'unfortunately_'
'uh'
'ug'
'uf'
'typical_'
'tur'
'tro'
'tori'
'threats_'
'threatened_'
'teile_'
'swa'
'sustained_'
'sur_'
'sun'
'suitable_'
'submit_'
'strongly_'
'strength_'
'stimulus_'
'steuer'
'son'
'sky_'
'sis_'
'sinnvoll_'
'settlement_'
'sen'
'selbst'
'sei'
'seat_'
'scho'
'schlecht_'
'sar'
'sale_'
'rum'
'rio'
'ride_'
'reply_'
'rend'
'remaining_'
'relief_'
'reliable_'
'regimes_'
'ref'
'ree'
'reagieren_'
'raten_'
'raising_'
'rag'
'quarter_'
'pu'
'prove_'
'prospect_'
'proposing_'
'prison_'
'praktisch_'
'possibly_'
'pli'
'operate_'
'ola'
'ogen_'
'obtain_'
'nommen_'
'nom'
'nge_'
'neighbors_'
'necessarily_'
'nds_'
'nda'
'mögen_'
'mp'
'movements_'
'motor'
'mont'
'monitor_'
'meter_'
'mati'
'markt'
'manche_'
'managing_'
'maintenance_'
'lor'
'loo'
'lokale_'
'liked_'
'lie_'
'liches_'
'leu'
'length_'
'legitimacy_'
'kurze_'
'kostet_'
'ka'
'jenen_'
'ium_'
'ite'
'islands_'
'is'
'invest_'
'interface_'
'ins'
'ingen_'
'immt_'
'imbalances_'
'il'
'ih'
'ien'
'identified_'
'hundred_'
'http_'
'hr_'
'highlight_'
'heißen_'
'hearing_'
'harus_'
'gun'
'gra'
'globalisation_'
'ges'
'geraten_'
'generated_'
'gene'
'gelegt_'
'geb'
'freundlich_'
'frei'
'frage_'
'foot_'
'festgestellt_'
'fest'
'fehlt_'
'false_'
'falling_'
'excess_'
'ets_'
'estate_'
'es'
'eröffnet_'
'erwähnt_'
'erstellen_'
'erfolgt_'
'erb'
'eo'
'entscheidenden_'
'entscheidende_'
'ents_'
'entlang_'
'enten_'
'enhance_'
'ending_'
'enables_'
'en'
'ektor_'
'einzu'
'eigener_'
'eg'
'edited_'
'echte_'
'drink_'
'dramatic_'
'dis'
'didn_'
'demonstrated_'
'delay_'
'daraus_'
'dal'
'credibility_'
'counter'
'cou'
'convergence_'
'controlled_'
'contracts_'
'confirm_'
'conclusions_'
'computers_'
'cit'
'church_'
'chten_'
'chosen_'
'capitalism_'
'burg_'
'browser_'
'bri'
'blue_'
'bi'
'bezahlt_'
'betroffen_'
'besuchen_'
'besonderen_'
'beschränkt_'
'bequem_'
'bei'
'behalten_'
'begonnen_'
'bef'
'bedeuten_'
'bas'
'bahwa_'
'aut_'
'ausgezeichneten_'
'audio_'
'association_'
'asi_'
'argued_'
'approximately_'
'applies_'
'applicable_'
'allies_'
'alb'
'aircraft_'
'ain_'
'ag'
'afford_'
'advantages_'
'adults_'
'absch'
']]._'
'Zustand_'
'Zeichen_'
'Zahlen_'
'Yu'
'Währungsunion_'
'Without_'
'Wien_'
'Webseite_'
'Vorsitzenden_'
'Vorschlägen_'
'Voraussetzung_'
'Volkswirtschaft_'
'Verg'
'Verbreitung_'
'Verbraucher'
'Unternehmens_'
'USD_'
'USB_'
'UR'
'Tun'
'Tro'
'Then_'
'Thailand_'
'Termin'
'Technik_'
'Tal'
'Tages'
'TE'
'Symbol_'
'Sub'
'Stärke_'
'Streit'
'Stellungnahme_'
'Start_'
'Ski'
'Sitzung_'
'Sim'
'Schutz'
'Schau'
'Rund'
'Rechnung_'
'Ratsvorsitz_'
'Pool_'
'Player_'
'Plan'
'Partei'
'Palace_'
'Pact_'
'PPE_'
'Open'
'OECD_'
'Nr_'
'Note_'
'Nos_'
'Norden_'
'Nigeria_'
'Nacht'
'Märkten_'
'Myanmar_'
'Munich_'
'Mitgliedern_'
'Ministers_'
'Micro'
'Mehr_'
'Market_'
'Mag'
'Len'
'Laufe_'
'Labour_'
'LE'
'LA'
'Kunst'
'Kra'
'Kooperation_'
'Kontinent_'
'Klima_'
'Kim_'
'Jahrzehnt_'
'Israels_'
'Islands_'
'Indian_'
'Hussein_'
'Hostelsclub_'
'Ho'
'Hersteller_'
'Handeln_'
'Hamburg_'
'Gründung_'
'Grenz'
'Gesch'
'Geh'
'Ge'
'Gang_'
'Frühstücksbuffet_'
'Frei'
'Flüchtlinge_'
'Fi'
'Fal'
'Faktor_'
'Express_'
'Environment_'
'Entwicklungen_'
'Energy_'
'Eltern_'
'Due_'
'Dienste_'
'Die'
'Dem_'
'Datenbank_'
'Cyprus_'
'Cor'
'Company_'
'Cold_'
'Charter_'
'Charles_'
'Canada_'
'CI'
'CAN'
'Burg'
'Buch'
'Brussels_'
'Blog_'
'Bild'
'Belarus_'
'Before_'
'Avi'
'Audio_'
'Association_'
'Arbeitsmarkt_'
'Arbeitskräfte_'
'Aktionen_'
'Ai'
'Adresse_'
'Abgeordnete_'
'://_'
'3D_'
'37_'
'250_'
'24'
'20'
'191'
'09_'
'03'
'/ _'
'/'
'...'
'-'
') - _'
'() _'
'''
' -- _'
'” (_'
'н_'
'е_'
'überzeugen_'
'überlassen_'
'öffnen_'
'Öffnung_'
'zusammenge'
'zuerst_'
'zin'
'zeichen_'
'yn'
'yes_'
'ye'
'wächst_'
'wood_'
'wonderful_'
'wonder_'
'wishes_'
'wireless_'
'wesentliche_'
'weist_'
'warten_'
'wahr'
'vorzu'
'vorgesehen_'
'visible_'
'vis_'
'ving_'
'vic'
'verändern_'
'vert'
'verlangt_'
'verhindert_'
'ven'
'van'
'ux_'
'ursprünglich_'
'una'
'ult'
'twenty_'
'tten_'
'trouble_'
'trip'
'trillion_'
'treaty_'
'totally_'
'topic_'
'top'
'teil_'
'sz'
'symbol_'
'swi'
'successfully_'
'stu'
'stru'
'streets_'
'strategischen_'
'strategische_'
'stic_'
'stag'
'spricht_'
'spot_'
'somewhat_'
'solely_'
'sichern_'
'shed_'
'serviert_'
'schlägt_'
'sauna_'
'san'
'rund'
'rta'
'rre'
'roughly_'
'rot'
'rly_'
'richtlinie_'
'ret'
'restore_'
'residential_'
'rescue_'
'removed_'
'religion_'
'regularly_'
'reflection_'
'rechte_'
'reaction_'
'rare_'
'qualität_'
'prä'
'providers_'
'preparation_'
'preise_'
'potentially_'
'populist_'
'pollution_'
'pleasant_'
'pit'
'pin'
'personnel_'
'perform_'
'patent_'
'passiert_'
'passed_'
'outstanding_'
'op_'
'ology_'
'ol_'
'od'
'nt'
'nst'
'noted_'
'noise_'
'nights_'
'nicht'
'ndi'
'my'
'mut'
'muslimischen_'
'mpe'
'motor_'
'momentan_'
'mindestens_'
'meaningfully_'
'mba'
'maintaining_'
'ller_'
'lived_'
'linie_'
'ließen_'
'liberalisation_'
'lan_'
'kur'
'kt'
'kontrollieren_'
'kom'
'kin'
'ken'
'ke'
'karte_'
'jemand_'
'jegliche_'
'japanische_'
'itt_'
'iss'
'ip'
'installed_'
'inform_'
'inevitable_'
'index_'
'incomes_'
'ie'
'ida'
'ichen_'
'humanity_'
'hrt_'
'hoo'
'hn'
'hingegen_'
'hilft_'
'hier'
'heavy_'
'hardware_'
'guarantees_'
'gro'
'grammatically_'
'gradually_'
'gestärkt_'
'gera'
'genügend_'
'genutzt_'
'generations_'
'gel_'
'gefordert_'
'fördert_'
'free'
'forest_'
'flo'
'firstly_'
'female_'
'fees_'
'fears_'
'ez_'
'explained_'
'exception_'
'ex'
'estimated_'
'erreichbar_'
'ern'
'erle'
'erinnert_'
'erf'
'entstanden_'
'entitled_'
'ente_'
'ene'
'ender_'
'end'
'emi'
'emerged_'
'eliminate_'
'einerseits_'
'egen_'
'ect'
'eat_'
'dro'
'driver_'
'driven_'
'door_'
'diskutieren_'
'discussing_'
'discrimination_'
'direkten_'
'diplomacy_'
'dimension_'
'di'
'deiner_'
'dee'
'declared_'
'dapat_'
'dans_'
'ction_'
'cru'
'copy_'
'conventional_'
'contextually_'
'containing_'
'contained_'
'cons'
'connections_'
'conce'
'col'
'coalition_'
'classic_'
'civilian_'
'ci'
'chen'
'charming_'
'channels_'
'cash_'
'cad'
'bor'
'bislang_'
'bis'
'bildung_'
'bewältigen_'
'betreffen_'
'beschleunigen_'
'behaupten_'
'behandeln_'
'beginnt_'
'bat'
'barriers_'
'bal'
'baby_'
'ba_'
'ba'
'aufzubauen_'
'aufgezahlt_'
'attitude_'
'ator_'
'assure_'
'arte'
'ari_'
'are'
'arbeits'
'appointed_'
'amounts_'
'alle'
'album_'
'ala'
'affects_'
'af'
'acknowledge_'
'achieving_'
'ach'
'acce'
'abuse_'
'Zugriff_'
'Ya'
'Wohl'
'Wirtschaftspolitik_'
'Wird_'
'Wiki'
'Wettbewerbs'
'Videos_'
'Veränderung_'
'Verträge_'
'Verbot_'
'Verbesserungen_'
'Up'
'Universität_'
'Under_'
'Truppen_'
'Tab'
'Süden_'
'System'
'Sy'
'Sur'
'Straßen_'
'Stimm'
'Stability_'
'Staats_'
'Spe'
'Slo'
'Sitz_'
'Schulen_'
'Scho'
'Sa'
'SM'
'SA_'
'Rest_'
'Regional_'
'Regierungschefs_'
'Ratschlag_'
'Rats'
'Quellen_'
'Puerto_'
'Programms_'
'Prinzip_'
'Pra'
'Port'
'Para'
'Par'
'Paper_'
'Palestine_'
'PL'
'Os'
'Orten_'
'OK_'
'Non_'
'Nicht'
'Netz_'
'Nacht_'
'NO'
'Mont'
'Mil'
'Medien'
'May'
'Man'
'Malaysia_'
'Mad'
'Lord_'
'Likewise_'
'Like_'
'Lebensmittel'
'Konsum_'
'Komfort_'
'Keine_'
'Karten_'
'KDE_'
'Innen'
'Imp'
'Hä'
'Herstellung_'
'Herrschaft_'
'Grün'
'Gro'
'Gesetzgebung_'
'Gerichts'
'Gemeinden_'
'Geist_'
'Gegner_'
'Geb'
'GE'
'Freunde_'
'Fra'
'Fotos_'
'Foto'
'Fisch'
'Finland_'
'Finde_'
'Falls_'
'Est'
'Er'
'Einwanderung_'
'Einstellung_'
'Einheit_'
'EC'
'Does_'
'Dienstleistungs'
'Dia'
'Deutschlands_'
'Demokraten_'
'Deb'
'Datei'
'DO'
'DC_'
'Common_'
'Class_'
'C5_'
'Bewältigung_'
'Bevölkerungs'
'Beschluss_'
'Berg'
'Beim_'
'Bedarf_'
'Ba'
'BO'
'Auto_'
'Aufstieg_'
'Aufnahme_'
'As'
'Arbeiter_'
'Amendments_'
'Alter_'
'Agrar'
'Agency_'
'Adobe_'
'Action_'
'AU'
'700_'
'60'
'34_'
'1979_'
'1970_'
'196'
'186'
'08_'
'07_'
'02'
'-/_'
'," _'
'): _'
') – _'
') (_'
'('
' ….. _'
' )._'
'ün'
'übersch'
'öl'
'ès_'
'ätzen_'
'änder_'
'ände_'
'ähnlich_'
'Übersetzung_'
'Übersch'
'Ökonomie_'
'´_'
'zusammen'
'zugrunde_'
'zer'
'yt'
'yp'
'yer_'
'ye_'
'worst_'
'wollten_'
'windows_'
'willkommen_'
'wan'
'wal'
'wahren_'
'wachsen_'
'visited_'
'vis'
'vier'
'verursacht_'
'versions_'
'verschärft_'
'verehrte_'
'vere'
'va_'
'ute'
'ut'
'use'
'ursprünglichen_'
'urge_'
'unterzeichnet_'
'untergraben_'
'unf'
'uf_'
'uan_'
'tzung_'
'tti'
'tter_'
'travel'
'trans'
'towns_'
'tische_'
'time'
'tief_'
'tersebut_'
'teachers_'
'taxpayers_'
'swe'
'sum_'
'substance_'
'stun'
'stor'
'stocks_'
'staying_'
'stayed_'
'statistics_'
'stadt_'
'sse'
'speakers_'
'soil_'
'ski'
'sichtig'
'sicherheit_'
'shares_'
'sensible_'
'seg'
'see'
'schi'
'sche'
'sbe'
'savings_'
'saved_'
'satellite_'
'sal'
'ry'
'run'
'ru'
'route_'
'roll_'
'rm'
'rkt_'
'rk'
'revolutionary_'
'retten_'
'retirement_'
'reserve_'
'rep'
'rent_'
'ren'
'remind_'
'religiösen_'
'reject_'
'reduzieren_'
'reasonable_'
'ram'
'que'
'prepare_'
'praktische_'
'pr'
'pose_'
'ports_'
'politically_'
'phenomenon_'
'ph'
'pem'
'pass'
'parallel_'
'par_'
'pal'
'oy'
'os'
'operational_'
'oma'
'ol'
'offices_'
'offene_'
'obstacles_'
'näher_'
'nsi'
'nsch'
'notwendige_'
'none_'
'nochmals_'
'nke'
'nc'
'nahm_'
'nachhaltig_'
'mother_'
'ml'
'mixed_'
'mittel'
'mic'
'messen_'
'menschliche_'
'marks_'
'manager_'
'machines_'
'lug'
'ls'
'listen_'
'lin_'
'let'
'lea'
'lawyers_'
'langfristig_'
'kov'
'kor'
'komp'
'knew_'
'kla'
'kinds_'
'kern_'
'jungen_'
'jpg_'
'joined_'
'iti'
'items_'
'iso'
'interessiert_'
'intention_'
'input_'
'innovations_'
'indicated_'
'inc'
'in'
'ili'
'igt_'
'ified_'
'ideological_'
'ich'
'ible_'
'höchste_'
'hren_'
'hole_'
'hm'
'hi_'
'hervor_'
'heraus_'
'heavily_'
'ham_'
'gäbe_'
'gr'
'gn'
'gle'
'geöffnet_'
'gets_'
'gesellschaft_'
'genauso_'
'gardens_'
'früheren_'
'frag'
'ford_'
'fonds_'
'flights_'
'finde_'
'ffer'
'fertig_'
'failures_'
'expand_'
'everywhere_'
'esti'
'esta'
'ese'
'escape_'
'erheblich_'
'era'
'epi'
'entwickelte_'
'entw'
'enhanced_'
'engagement_'
'engage_'
'encouraging_'
'ema'
'eite_'
'einzigartigen_'
'einfachen_'
'efe'
'ed'
'echten_'
'earned_'
'drawn_'
'down'
'distinguish_'
'disc'
'dient_'
'died_'
'dent'
'democracies_'
'ct'
'court_'
'corner_'
'convert_'
'contributions_'
'consistent_'
'consequence_'
'conditioning_'
'components_'
'collection_'
'cold_'
'ci_'
'careful_'
'cal'
'cable_'
'brand_'
'bilateral_'
'betroffenen_'
'betreiben_'
'besitzen_'
'berg'
'ben'
'beinahe_'
'begrenzt_'
'bathrooms_'
'attractions_'
'ative_'
'ates_'
'applying_'
'angesprochen_'
'amenities_'
'am'
'alter_'
'alen_'
'affairs_'
'advertising_'
'adi'
'adequate_'
'ade_'
'abroad_'
'Zwischen_'
'Zusammenhalt_'
'Zug_'
'Zimmern_'
'Ze'
'Yes_'
'Währungsfonds_'
'Wor'
'Who_'
'Where_'
'Weltkrieg_'
'Wall_'
'Ve'
'Valencia_'
'Va'
'Ursachen_'
'UN'
'Trotzdem_'
'Transport'
'Todes'
'Tiere_'
'Though_'
'Tests_'
'Terroristen_'
'Telefon'
'TER'
'Such'
'Stein'
'Statt_'
'Stan'
'Souveränität_'
'Sony_'
'Sho'
'Set_'
'Sektoren_'
'Schwellenländer_'
'Ruhe_'
'Reise'
'Regulierung_'
'Regelungen_'
'Ratspräsidentschaft_'
'Ram'
'Rad'
'RD'
'Prüfung_'
'Produkt_'
'Polizei_'
'Polish_'
'Poker_'
'Place_'
'Pla'
'Peter_'
'Past'
'Palestinians_'
'Pala'
'Or_'
'Ol'
'OS'
'Nas'
'My'
'Moscow_'
'Mor'
'Moo'
'Moment_'
'Mitgliedsstaaten_'
'Mikro'
'Migranten_'
'Meeres'
'Mass'
'Marktes_'
'MS_'
'MP'
'Licht_'
'Kurz_'
'Kr'
'Konsum'
'Konsequenzen_'
'Konjunktur'
'Komponenten_'
'Kilometer_'
'Ker'
'Ken'
'Katastrophe_'
'Kat'
'Kap'
'Joseph_'
'Institution_'
'Insbesondere_'
'Inn_'
'Immobilien'
'Ihres_'
'IF'
'IA'
'Having_'
'Haushalte_'
'Hauptbahnhof_'
'Hand'
'Gut'
'Golden_'
'Glück_'
'Gleichgewicht_'
'Gipfel_'
'Gewinne_'
'Gegenstand_'
'GNU_'
'Fälle_'
'Freuen_'
'Form'
'Fla'
'Firma_'
'Fer'
'Fenster_'
'FA'
'Einhaltung_'
'Effizienz_'
'ES_'
'Dynamik_'
'Dutch_'
'Details_'
'Delegation_'
'Definition_'
'Day_'
'Dam'
'Cu'
'Comm'
'College_'
'Cat'
'Cam'
'CE_'
'CE'
'CD'
'Bulgaria_'
'Boden_'
'Bla'
'Bis'
'Betriebs'
'Besides_'
'Berücksichtigung_'
'Berufs'
'Bars_'
'Banken'
'BR'
'Auge_'
'Auftrag_'
'Are_'
'Arbeiten_'
'Ar'
'Ant'
'Anpassung_'
'Anleger_'
'Angela_'
'Angaben_'
'Anbetracht_'
'Amtszeit_'
'Ambiente_'
'All'
'Agentur_'
'AS'
'AI'
'A3'
':'
'85_'
'49_'
'26'
'1993_'
'1992_'
'...._'
'({{_'
'’._'
'у_'
'ж'
'во'
'üsse_'
'übertr'
'überaus_'
'ña_'
'ätze_'
'äng'
'älteren_'
'Übergang_'
'Ärzte_'
' – _'
'zuständig_'
'ziemlich_'
'zieht_'
'zar'
'ystem_'
'ws_'
'wissenschaftlichen_'
'whereas_'
'western_'
'wel'
'weitgehend_'
'wei'
'vorstellen_'
'vorlegen_'
'voller_'
'vieles_'
'vern'
'verfügbar_'
'verbindet_'
'usi'
'uren_'
'unt'
'une'
'undoubtedly_'
'uncertainty_'
'umzu'
'ums'
'ular_'
'ue'
'tätig_'
'twice_'
'tri'
'trends_'
'tours_'
'tough_'
'tions'
'tin'
'tigen_'
'thy_'
'terrorists_'
'telah_'
'tech_'
'tea_'
'tag_'
'tackle_'
'syn'
'surface_'
'subsequent_'
'su_'
'storage_'
'stein_'
'spe'
'spaces_'
'soweit_'
'solid_'
'sm'
'showed_'
'schöne_'
'schweren_'
'schu'
'schie'
'rück'
'rze'
'robust_'
'ris'
'rip'
'rig'
'richtigen_'
'ri'
'revenue_'
'respected_'
'renewable_'
'regeln_'
'rechten_'
'rc'
'raw_'
'ratio_'
'rap'
'rah'
'qualified_'
'puts_'
'pun'
'pt_'
'promises_'
'profile_'
'produktion_'
'pred'
'possibilities_'
'positiv_'
'pol'
'pointed_'
'piel_'
'pic'
'persistent_'
'periods_'
'percentage_'
'percent_'
'patterns_'
'passieren_'
'passengers_'
'passenger_'
'para'
'oz'
'ow_'
'ov'
'our'
'organised_'
'ordered_'
'ong_'
'olin'
'occurred_'
'obligation_'
'object_'
'nötigen_'
'nz'
'ntr'
'novel_'
'nnen_'
'nit'
'nine_'
'newspaper_'
'neu'
'neighbouring_'
'namen_'
'mountains_'
'mn'
'miles_'
'mes'
'mere_'
'medicines_'
'meals_'
'marquis_'
'mand'
'ländern_'
'logical_'
'locations_'
'lobby_'
'lit'
'liefern_'
'leaves_'
'layer_'
'lar'
'lam'
'lac'
'krieg_'
'kon'
'komm'
'klein_'
'kit'
'kh'
'kel'
'ita'
'ists_'
'iron_'
'integriert_'
'installiert_'
'informieren_'
'inden_'
'incentive_'
'imm'
'ij'
'ignored_'
'ifi'
'if'
'iesen_'
'ics_'
'hs_'
'hot'
'hoped_'
'herrscht_'
'heim'
'happens_'
'handle_'
'han'
'haften_'
'größerer_'
'großem_'
'groß'
'grown_'
'griechische_'
'gri'
'grateful_'
'grad'
'gestaltet_'
'geschieht_'
'gering_'
'ger'
'genannte_'
'gegen'
'gedr'
'fying_'
'fu'
'fourth_'
'foundation_'
'folgende_'
'finanzieren_'
'financed_'
'fin'
'feld_'
'feeling_'
'facto_'
'exciting_'
'eur_'
'etz'
'eta'
'esi'
'erscheint_'
'erlauben_'
'erhebliche_'
'erfüllt_'
'erfordern_'
'ere'
'ent'
'ens'
'enr'
'engine_'
'engaged_'
'ements_'
'ely_'
'els_'
'ein'
'eht_'
'educational_'
'eco'
'ebene_'
'eau_'
'eastern_'
'earth_'
'difficulty_'
'destination_'
'describes_'
'demo'
'deflation_'
'dedicated_'
'de'
'dates_'
'creative_'
'cre'
'constantly_'
'clubs_'
'cleaning_'
'cla'
'ckt_'
'ción_'
'citizen_'
'chtig'
'chal'
'centres_'
'causing_'
'castle_'
'cas_'
'can'
'bs_'
'breath'
'boot'
'blind_'
'bild_'
'betonen_'
'beteiligt_'
'beschäftigen_'
'beschränken_'
'besch'
'berühmten_'
'beraten_'
'bekommt_'
'behörde_'
'begins_'
'beendet_'
'bedeutenden_'
'bea'
'bau_'
'backed_'
'awareness_'
'ausschuss_'
'arrested_'
'architecture_'
'apparent_'
'anzunehmen_'
'ani'
'angen_'
'angemessene_'
'angegebenen_'
'anc'
'anb'
'amongst_'
'amo'
'all'
'air'
'affordable_'
'affect_'
'admit_'
'adapt_'
'adalah_'
'accepting_'
']]'
']'
'Zweck_'
'Zwar_'
'Zivil'
'Zinssätze_'
'Zei'
'Year_'
'Wirtschafts'
'William_'
'Wesentlichen_'
'Werk_'
'Welche_'
'Wachstums_'
'Vorbe'
'Vol'
'Vision_'
'Vice_'
'Verständnis_'
'Vel'
'VI'
'Universitäten_'
'Titel_'
'Thanks_'
'Terror'
'Terrasse_'
'Technology_'
'TO'
'Swiss_'
'Support_'
'Suite_'
'Stunde_'
'Struktur_'
'Steuer_'
'Staff_'
'Sowjetunion_'
'Sogar_'
'Signal_'
'Sierra_'
'Serie_'
'Schweden_'
'Schiff_'
'Schicksal_'
'Sc'
'Sar'
'Rückkehr_'
'Rob'
'Resolution_'
'Referendum_'
'Profi'
'Produkten_'
'Pap'
'Pakete_'
'PRO'
'PE'
'Ost'
'Organe_'
'Offen'
'Oder_'
'Ob_'
'Nonetheless_'
'Noch_'
'News_'
'National'
'Nachrichten_'
'Nachricht_'
'Mädchen_'
'Multi'
'Mubarak_'
'Mou'
'Morgen_'
'Module_'
'Met'
'Menü_'
'Menschheit_'
'Maßnahme_'
'Maria_'
'Mac_'
'Life_'
'Lern'
'Laut_'
'Küsten'
'König_'
'Kur'
'Koordinierung_'
'Konvents_'
'Konflikte_'
'Kommunismus_'
'Komm'
'Kluft_'
'Kla'
'Kapital_'
'Kampagne_'
'Ji'
'Jerusalem_'
'Jede_'
'Is'
'IM'
'IG'
'Haus'
'Haftung_'
'Großteil_'
'Gri'
'Geschäfte_'
'Gerechtigkeit_'
'Georgia_'
'Garden_'
'GS'
'GA'
'Fuß_'
'Fischerei'
'Finanzierungs'
'Film'
'Fest'
'Ferner_'
'Feld_'
'Federation_'
'Fair'
'Errichtung_'
'Entscheidungsträger_'
'Entscheidungs'
'Elemente_'
'Distribution_'
'Diskussionen_'
'Dis'
'Din'
'Digital_'
'Desk_'
'Del'
'Darum_'
'Cro'
'Colo'
'Climate_'
'Chairman_'
'Card_'
'Captain_'
'Call'
'CF'
'CC'
'Box_'
'Blue_'
'Blair_'
'Black_'
'Bill_'
'Besucher_'
'Bestandteil_'
'Beschlüsse_'
'Bereitschaft_'
'Bemerkungen_'
'Bemerkung_'
'Beiträge_'
'Beh'
'Bea'
'Be'
'Baltic_'
'Balkans_'
'Außenpolitik_'
'Außen'
'Authority_'
'Arabia_'
'Any_'
'Anst'
'Anlagen_'
'Alexander_'
'AD'
'; '
'98_'
'97_'
'79'
'63_'
'55_'
'41_'
'38_'
'237'
'2020_'
'182'
'.  _'
'. „_'
'''_'
''''
' !_'
'‘_'
'ра'
'но'
'ме'
'ма'
'ла'
'й'
'š'
'ütte'
'üge_'
'übers'
'ú'
'ön'
'zugunsten_'
'zieren_'
'zer_'
'zel'
'yar'
'wunder'
'wu'
'woman_'
'wirksame_'
'wir'
'wife_'
'wiederholen_'
'widerspr'
'werte_'
'weiterge'
'waters_'
'vorliegenden_'
'vorbei_'
'volume_'
'vollständige_'
'vollen_'
'voll'
'violent_'
'vin'
'vi'
'verspricht_'
'versetzt_'
'verpflichten_'
'verk'
'veri'
'verabschiedet_'
'variable_'
'unterstütze_'
'unlike_'
'ungsp'
'underway_'
'understood_'
'unbea'
'unange'
'umgeben_'
'uk_'
'uit'
'ug_'
'uen_'
'uan'
'trip_'
'terror_'
'tennis_'
'teil'
'tea'
'ta'
'sur'
'stärkere_'
'stä'
'stylish_'
'stimmt_'
'stem_'
'stellung_'
'speichern_'
'sou'
'solches_'
'sofern_'
'smooth_'
'sleep_'
'shape_'
'sh'
'securities_'
'secular_'
'sd'
'schrieb_'
'schnelle_'
'sb'
'sau'
'sam'
'sah_'
'ruling_'
'ruhig_'
'rte_'
'rte'
'rie_'
'rich'
'ric'
'rge'
'rg'
'resulted_'
'restructuring_'
'rest'
'ress_'
'respects_'
'respective_'
'resistance_'
'requirement_'
'renowned_'
'rem'
'regionaler_'
'regarded_'
'reflected_'
'reduziert_'
'rede'
'recorded_'
'reconstruction_'
'recommendations_'
'realen_'
'raph'
'rant'
'ranging_'
'ral_'
'rain'
'purchases_'
'ps'
'präsentiert_'
'proportion_'
'profound_'
'produktiv'
'produces_'
'previously_'
'preis_'
'practically_'
'plenary_'
'ple'
'plays_'
'pea'
'pays_'
'password_'
'partnerships_'
'palästinensischen_'
'ow'
'overlooking_'
'ous'
'ote'
'ose_'
'organized_'
'organisiert_'
'organisationen_'
'opponents_'
'omm'
'observers_'
'oa'
'nz_'
'nse'
'notice_'
'notably_'
'nn'
'nken_'
'niveau_'
'niedrigen_'
'nic'
'new'
'ner'
'nch'
'nab'
'mä'
'ms'
'mount_'
'modest_'
'mod'
'mil'
'mend'
'marked_'
'mani'
'male_'
'läge_'
'lter'
'lounge_'
'lots_'
'los'
'logic_'
'leg'
'langfristigen_'
'landscape_'
'lands_'
'lad'
'ky_'
'kop'
'konkreten_'
'kin_'
'keineswegs_'
'jährigen_'
'justified_'
'ji_'
'japanischen_'
'jahr_'
'istischen_'
'isn_'
'involvement_'
'introducing_'
'insufficient_'
'ink'
'informal_'
'implies_'
'ika'
'idi'
'id'
'ica'
'hängt_'
'home'
'hinter'
'hilfreich_'
'herzlich_'
'hen'
'helps_'
'hed_'
'harm_'
'happening_'
'gte_'
'graphics_'
'gestiegen_'
'gestern_'
'gesellschaften_'
'geringere'
'gemein'
'gele'
'geeignet_'
'gal'
'gains_'
'furnished_'
'fte_'
'freuen_'
'frequently_'
'fort_'
'floors_'
'fill_'
'fewer_'
'fate_'
'fashion_'
'fare_'
'faith_'
'failing_'
'fahr'
'explore_'
'existieren_'
'exi'
'evaluation_'
'eva'
'euros_'
'essi'
'erstmals_'
'erst'
'ers'
'error_'
'erk'
'erhielt_'
'erheblichen_'
'ergriffen_'
'entsprechen_'
'enterprise_'
'enf'
'enc'
'emerge_'
'elt_'
'eli'
'ela'
'einzig_'
'einzelne_'
'eintr'
'einheitlichen_'
'einfacher_'
'edge_'
'economically_'
'eas'
'ea'
'durchführen_'
'druck_'
'drivers_'
'diverse_'
'dite'
'disco'
'discipline_'
'directed_'
'dig'
'df'
'designs_'
'dep'
'demonstrate_'
'demokratischer_'
'define_'
'decisive_'
'deals_'
'dead_'
'dea'
'dam'
'cti'
'creates_'
'cosy_'
'cop'
'contributing_'
'conta'
'constitute_'
'constant_'
'conse'
'commodity_'
'com'
'colours_'
'colour'
'collaboration_'
'clo'
'cin'
'chances_'
'certainty_'
'cast'
'cameras_'
'bun'
'bubble_'
'broken_'
'brief_'
'breiten_'
'boot_'
'blu'
'bi_'
'bet'
'besorgt_'
'bers'
'bericht_'
'bemühen_'
'bell'
'bela'
'bel'
'beinhaltet_'
'beige'
'behaviour_'
'beha'
'begun_'
'begegnen_'
'bedrooms_'
'bed'
'beauty_'
'beantworten_'
'baru_'
'avoided_'
'autonomy_'
'ausgezeichnete_'
'ausgehen_'
'ausgegeben_'
'aufmerksam_'
'aub'
'assi'
'aspect_'
'aside_'
'asiatischen_'
'arrived_'
'array_'
'aro'
'arkt'
'arge'
'ara'
'ant'
'angel'
'ange'
'ander'
'ambi'
'altung_'
'aks'
'aggressive_'
'aci'
'abwe'
'abkommen_'
'Zuständigkeit_'
'Zusammen'
'Zivilgesellschaft_'
'Zins'
'Zeitung_'
'Wikitravel_'
'Whi'
'Whether_'
'Wald'
'Vorsch'
'View_'
'Vier'
'Vielen_'
'Verfolgung_'
'Verein'
'Vater_'
'Van_'
'Update_'
'Untersuchungen_'
'Ums'
'Umgang_'
'Tat'
'TH'
'Switzerland_'
'Super'
'Studio_'
'Strukturreformen_'
'Strukturfonds_'
'Strom'
'Strategy_'
'Strasbourg_'
'Stra'
'Steigerung_'
'Spezialitäten_'
'Spannungen_'
'Sor'
'Sonnen'
'Similarly_'
'Siege'
'Show_'
'Shanghai_'
'Set'
'Serbien_'
'Sep'
'Selbstverständlich_'
'Sec'
'Sea'
'Schlussfolgerungen_'
'Schi'
'Schatten_'
'Sau'
'SO'
'Ruh'
'Romania_'
'Road_'
'River_'
'Richard_'
'Renten'
'Ren'
'Religion_'
'Rei'
'Regierungskonferenz_'
'Regi'
'Red'
'Raum'
'Projekt'
'Premier_'
'Point_'
'Pläne_'
'PSE_'
'PL_'
'Ober'
'Nu'
'Nie'
'Nero_'
'Nazi_'
'Monopol'
'Mol'
'Mitgliedstaat_'
'Minute_'
'Methoden_'
'Menschen'
'Mein_'
'Mechanismen_'
'Massen'
'Mangel_'
'ME'
'MB_'
'League_'
'Landwirte_'
'LabVIEW_'
'Küste_'
'Künstler_'
'Kä'
'Kurz'
'Kulturen_'
'Krisen_'
'Kit'
'Kirche_'
'Kategorie_'
'Kas'
'Kampf'
'Jones_'
'Je_'
'Interventionen_'
'Internet'
'Internationale_'
'Insgesamt_'
'Ins'
'Innenstadt_'
'Indiens_'
'Index_'
'IR'
'IL'
'Hauses_'
'Has'
'Har'
'Handelss'
'Hai'
'HTML_'
'Grundsatz_'
'Gleich'
'Glauben_'
'Glas'
'Geschwindigkeit_'
'Ges'
'Gelder_'
'Gegens'
'Gas_'
'Gas'
'Garantie_'
'GI'
'Fun'
'Früh'
'Format_'
'Fo'
'Flugzeuge_'
'Finnish_'
'Festlegung_'
'Fat'
'Erm'
'Empfehlungen_'
'Ele'
'Einbeziehung_'
'Effekt_'
'Education_'
'ET'
'EP'
'Dritte_'
'Donald_'
'Diskriminierung_'
'Disk'
'Demokratien_'
'Demo'
'Clo'
'Chávez_'
'Cas'
'Cal'
'Cab'
'Budgets_'
'Budapest_'
'Block'
'Betr'
'Belgium_'
'Beijing_'
'Band'
'Bahnhof_'
'B5_'
'Ausl'
'Arbeitgeber_'
'Anschluss_'
'Anlass_'
'Anlage_'
'Anders_'
'Andernfalls_'
'An'
'Alm'
'Alles_'
'Abe_'
'Abe'
'AB'
'78_'
'7'
'31'
'28'
'2030_'
'1990er_'
'189'
'1000_'
'04_'
'… _'
'• _'
'я_'
'ы_'
'ч'
'те'
'п_'
'не'
'ž'
'überwinden_'
'überprüft_'
'ó_'
'ég'
'Ü'
'Ökonomien_'
'· _'
' '
'{{_'
'zählt_'
'zurückzu'
'zunehmende_'
'zug_'
'yard_'
'wünsche_'
'wü'
'wre'
'wonach_'
'wohnen_'
'wohn'
'wenden_'
'welcoming_'
'web'
'water'
'wart'
'ware_'
'wake_'
'vorgenommen_'
'voraus_'
'virus_'
'verringert_'
'verkaufen_'
'verg'
'vent'
'veni'
'vel'
'valid_'
'ution'
'uss'
'usa'
'upgrade_'
'uno'
'unk'
'university_'
'universities_'
'umfangreiche_'
'ultra'
'uer_'
'uel'
'ud'
'uche_'
'uch_'
'uar'
'typically_'
'twin_'
'ture_'
'tude_'
'tru'
'treat_'
'trag'
'tobacco_'
'tion'
'tik_'
'threshold_'
'tha'
'ters_'
'tele'
'teilnehmen_'
'teaching_'
'tau'
'tas_'
'targeted_'
'tap'
'tal_'
'tabl'
'süd'
'sustain_'
'surely_'
'supporters_'
'supplies_'
'sul'
'suites_'
'suggested_'
'successes_'
'studio_'
'string_'
'strategie_'
'stories_'
'stops_'
'stand'
'spüren_'
'spezifische_'
'spezielle_'
'sp'
'sozial'
'solange_'
'smus_'
'sma'
'si'
'showing_'
'shortage_'
'shock_'
'sho'
'sheet_'
'sharp_'
'sexual_'
'setzte_'
'serving_'
'senken_'
'selten_'
'seeks_'
'se'
'schön_'
'schnellen_'
'sauber_'
'sala'
'sake_'
'ruhigen_'
'rou'
'ringen_'
'rib'
'ria'
'reta'
'resolutions_'
'requested_'
'representation_'
'reporting_'
'replace_'
'repeatedly_'
'repeated_'
'repeat_'
'remarks_'
'rein'
'regulated_'
'regret_'
'registration_'
'refused_'
'recover_'
'recommended_'
'rechtlichen_'
'recall_'
'rb'
'rational_'
'ration_'
'rating_'
'rapporteurs_'
'quo_'
'q'
'proposes_'
'produziert_'
'privileged_'
'privacy_'
'premi'
'prefer_'
'populations_'
'pon'
'phon'
'peri'
'peak_'
'pace_'
'ott'
'oth'
'orm'
'orders_'
'opt_'
'oli'
'offiziell_'
'occasion_'
'nü'
'ny_'
'nunmehr_'
'ntu'
'nti'
'nter'
'nswerte'
'notion_'
'noti'
'not'
'nger'
'net'
'natürlichen_'
'natur'
'nan_'
'nachhaltigen_'
'nachge'
'mü'
'multiple_'
'multilateral_'
'mpo'
'mpa'
'movie_'
'moralische_'
'mon_'
'moments_'
'mo_'
'mitten_'
'mittels_'
'minimal_'
'mi'
'meters_'
'merk'
'medi'
'meal_'
'mbi'
'mber'
'mas_'
'maritime_'
'manufacturers_'
'man'
'magnificent_'
'ly'
'lte_'
'losigkeit_'
'lm'
'lle'
'lla_'
'literature_'
'lier'
'lem'
'lebt_'
'lebens'
'leb'
'lake_'
'kämpfen_'
'kä'
'kriege'
'konfrontiert_'
'klicken_'
'killing_'
'key'
'ket'
'kernel_'
'kation_'
'kan'
'junge_'
'joining_'
'italienischen_'
'islamischen_'
'isi'
'ious_'
'ior'
'involving_'
'invested_'
'inva'
'intentions_'
'intelligence_'
'institut'
'ino_'
'ino'
'inf'
'ines_'
'ine'
'indischen_'
'indi'
'impr'
'imagin'
'im'
'ils_'
'illi'
'ignore_'
'ight_'
'iges_'
'ig'
'ica_'
'humans_'
'hoping_'
'homes_'
'holds_'
'hohem_'
'hit'
'hingewiesen_'
'hielt_'
'hero'
'hergestellt_'
'hence_'
'hat'
'handel_'
'halbe'
'größeres_'
'grant_'
'grand'
'gor'
'glass_'
'gkeit_'
'gh_'
'gewähren_'
'gesetz'
'gese'
'geringe_'
'geplant_'
'geltenden_'
'gefährdet_'
'gefährden_'
'gebunden_'
'gang_'
'fühlen_'
'fy_'
'friend_'
'fri'
'fossil_'
'forthcoming_'
'foot'
'follows_'
'folge'
'fleet_'
'fitness_'
'fication_'
'fic'
'fern'
'fall'
'factor_'
'extraordinary_'
'extra'
'exclusion_'
'ewa'
'estr'
'ese_'
'erweisen_'
'erlangen_'
'equity_'
'entsteht_'
'entscheidend_'
'entgegen_'
'endo'
'ell'
'eilung_'
'eich'
'egal_'
'effektiv_'
'eer'
'echen_'
'ech'
'ea_'
'dt_'
'drawing_'
'dos_'
'dominant_'
'dit'
'disk_'
'direkte_'
'devoted_'
'det'
'derer_'
'dependent_'
'departure_'
'delicious_'
'dealt_'
'dat'
'dar'
'cur'
'ctive_'
'corresponding_'
'copyright_'
'coordinated_'
'converted_'
'contents_'
'considerably_'
'conservative_'
'concentrate_'
'con'
'composed_'
'component_'
'comply_'
'comp'
'codes_'
'class'
'claimed_'
'cker_'
'chemical_'
'chel'
'charm'
'caught_'
'capabilities_'
'calendar_'
'bä'
'buchen_'
'bridge_'
'breite_'
'boo'
'boa'
'bo_'
'blieb_'
'birth_'
'bild'
'bilateralen_'
'bie'
'betreffenden_'
'bestehende_'
'beseitigen_'
'beschließen_'
'bert'
'bele'
'bekannten_'
'bek'
'befassen_'
'bauen_'
'basieren_'
'badly_'
'ay'
'autumn_'
'auswählen_'
'auswirken_'
'ausländische_'
'aufrechtzuerhalten_'
'atz_'
'atz'
'attempted_'
'ath'
'asi'
'articles_'
'arten_'
'armen_'
'arise_'
'arc'
'anzuzeigen_'
'anywhere_'
'anf'
'anerkannt_'
'amerikanischer_'
'alcohol_'
'ak_'
'ail'
'agr'
'adopting_'
'ado_'
'acting_'
'Zusammens'
'Zuge_'
'Zo'
'Zahlungen_'
'Yo'
'Währungen_'
'Would_'
'Work_'
'Wladimir_'
'Winter_'
'Wild'
'Wikicars_'
'Wi_'
'Wellness_'
'Wel'
'Weiter'
'Vorstellung_'
'Vorgehen_'
'Vorausschau_'
'Voll'
'Vielmehr_'
'Video'
'Verteidigungs'
'Versuche_'
'Vermi'
'Verm'
'Verlauf_'
'Valley_'
'VE_'
'Use_'
'Unterkunft_'
'Uns_'
'Treaties_'
'Tok'
'Tochter_'
'Tip_'
'Tim'
'Tier'
'Ticket_'
'Texas_'
'Syn'
'Sunday_'
'Sudan_'
'Stä'
'Stimmung_'
'Stattdessen_'
'Start'
'Star'
'Ska'
'Sid'
'Several_'
'Sei'
'Schweiz_'
'Schuld'
'Schlüssel_'
'Scheitern_'
'Sauna_'
'SD'
'Roman'
'Rom'
'Roll'
'Rock_'
'Republicans_'
'Rec'
'Rand_'
'Qualitäts'
'Punkten_'
'Presse'
'Preisen_'
'Pop'
'Politikern_'
'Planung_'
'PP'
'Otherwise_'
'Opera_'
'Once_'
'Niemand_'
'Natur'
'Nat'
'Mur'
'Mos'
'Modern_'
'Mobile_'
'Mittel'
'Min'
'Messe'
'Mensch_'
'Marketing_'
'Mark_'
'Mario_'
'Mari'
'Manhattan_'
'Mala'
'Luc'
'Lockerung_'
'Lizenz'
'Links_'
'Libya_'
'Legitimität_'
'Lea'
'LateRooms_'
'Ladies_'
'Lab'
'LL'
'LE_'
'Können_'
'Kurs_'
'Kunden'
'Kuba_'
'Konf'
'Klimawandels_'
'Klasse_'
'Kir'
'Keynes_'
'Key'
'Kauf_'
'KO'
'Journalisten_'
'Jahrzehnte_'
'Ja_'
'Ing'
'Infrastruktur'
'Info'
'IS_'
'ISO_'
'Hu'
'Helsinki_'
'Ham'
'Guests_'
'Großen_'
'Grab'
'Gil'
'Gentoo_'
'Generationen_'
'Gef'
'Gar'
'Ga'
'GB_'
'Führungs'
'Funds_'
'Freude_'
'Freiheiten_'
'Frank_'
'Formular_'
'Ford_'
'Florida_'
'Fischerei_'
'Fi_'
'Farb'
'Europa'
'Entschließungsantrag_'
'Empire_'
'Emissions'
'Em'
'Element_'
'Einer_'
'Eg'
'Dun'
'Dorf_'
'Dokument_'
'Disc'
'Deutschen_'
'Des_'
'Dep'
'Declaration_'
'Debatten_'
'Darin_'
'DER_'
'Cra'
'Constitutional_'
'Chu'
'CON'
'Bud'
'Branchen_'
'Bl'
'Beteiligung_'
'Bes'
'Bereitstellung_'
'Beitritts'
'Beispielsweise_'
'Bedürfnisse_'
'Ave'
'Ava'
'Australia_'
'Aussch'
'Ausführungen_'
'Ausführung_'
'Arc'
'Arbeitslosen'
'Ann'
'Anlage'
'Andere_'
'Alli'
'Alle'
'Aktion_'
'Airlines_'
'Afrikas_'
'Abhängigkeit_'
'ASEAN_'
'AL'
'72_'
'600_'
'6'
'59_'
'50'
'22'
'1994_'
'1971_'
'1967_'
'187'
'184'
'183'
'120_'
'01'
''' (_'
'$_'
'  _'
'’, _'
'қ'
'да'
'ł'
'üh'
'übernimmt_'
'überdenken_'
'üb'
'öh'
'öffentlicher_'
'äußern_'
'ätz'
'äten_'
'ähnliche_'
'ägen_'
'ão_'
'» _'
'}} **{{_'
'zwei'
'zunehmenden_'
'zugänglich_'
'zuges'
'zogen_'
'zione_'
'zierung_'
'zentren_'
'youth_'
'yma'
'xe'
'wis'
'wirkt_'
'wirkliche_'
'win'
'will'
'whilst_'
'whi'
'wesen_'
'wer'
'we'
'watch_'
'wahl_'
'voluntary_'
'vollkommen_'
'vielmehr_'
'verteilt_'
'vermutlich_'
'vermitteln_'
'ved_'
'ury_'
'urgently_'
'urf_'
'unte'
'unsch'
'united_'
'undermine_'
'umwelt'
'umso_'
'umfassen_'
'ultimate_'
'ues_'
'uct'
'uchen_'
'uch'
'türkischen_'
'tzt_'
'twe'
'tum_'
'trial_'
'tour_'
'tone_'
'ticket_'
'territories_'
'tem'
'tely_'
'teilt_'
'tall'
'tag'
'sé'
'sätze_'
'systemen_'
'surprised_'
'sure'
'stützen_'
'ständigen_'
'struck_'
'strike_'
'stri'
'sto'
'stie'
'steel_'
'sted_'
'ste'
'starts_'
'stammen_'
'stal'
'staatlicher_'
'staaten_'
'sst_'
'spoken_'
'specified_'
'sparen_'
'sozialer_'
'sons_'
'some'
'soldiers_'
'sna'
'sn'
'sli'
'ska'
'sion'
'shop_'
'shocks_'
'shadow_'
'scu'
'sci'
'schla'
'schemes_'
'schaden_'
'rweise_'
'rv'
'rum_'
'rufen_'
'rop'
'rooted_'
'rme'
'rle'
'rightly_'
'rif'
'rian_'
'revealed_'
'residence_'
'reputation_'
'repair_'
'renoviert_'
'reg'
'recommendation_'
'reb'
'reas'
'reactions_'
'rea'
'ran'
'radi'
'qui_'
'qui'
'question'
'quest_'
'quel'
'qu'
'punkte_'
'psycho'
'prozess_'
'prose'
'prop'
'promoted_'
'proceedings_'
'presents_'
'ppl'
'posed_'
'porta'
'poorest_'
'poly'
'play'
'plan'
'pil'
'phones_'
'pho'
'pf'
'perubahan_'
'pert'
'persönliche_'
'permanently_'
'pen_'
'path'
'participants_'
'parks_'
'orts_'
'organ'
'ore'
'optional_'
'optimal_'
'oppose_'
'oo'
'ona_'
'omi'
'olen_'
'oh'
'off'
'occupation_'
'obtained_'
'objects_'
'normalen_'
'niedriger_'
'neun_'
'nd'
'nces_'
'narrow_'
'müsse_'
'myth'
'mm'
'mistake_'
'missing_'
'minorities_'
'mine_'
'mie'
'mid'
'messages_'
'menye'
'menu'
'menjadi_'
'mela'
'mea'
'mann_'
'manchen_'
'makers_'
'lunch_'
'loved_'
'logy_'
'llo'
'lists_'
'linguistic_'
'light'
'ließ_'
'lieber_'
'lieb'
'lev'
'lets_'
'leistung_'
'leidet_'
'legally_'
'lee'
'laufenden_'
'lau'
'lasting_'
'kürze'
'kümmern_'
'kurzfristig_'
'kurzer_'
'ksi'
'kosten'
'kontrolliert_'
'komme_'
'kita_'
'justify_'
'jemals_'
'jederzeit_'
'ize_'
'ition_'
'isation_'
'irre'
'ique_'
'interessen_'
'intend_'
'instability_'
'indicate_'
'inde'
'inadequate_'
'impression_'
'impa'
'illegale_'
'illa'
'ign'
'iet'
'hör'
'hundert_'
'holidays_'
'hervorragende_'
'heritage_'
'herauszu'
'hau'
'handling_'
'handels'
'hal'
'gy'
'gui'
'grundsätzlich_'
'granting_'
'got'
'gi_'
'ghe'
'gewiss_'
'getragen_'
'gesunde'
'geschrieben_'
'genetic_'
'gem'
'gelöst_'
'gelingt_'
'gefa'
'gee'
'geboren_'
'gebiet_'
'gallery_'
'förder'
'functioning_'
'fuels_'
'fs_'
'franc'
'fore'
'focusing_'
'flying_'
'fly_'
'flug'
'flu'
'filled_'
'ffen_'
'festgelegten_'
'favor_'
'farm_'
'familiar_'
'fach'
'exploitation_'
'expert_'
'expe'
'exceptional_'
'eure_'
'etzen_'
'esse'
'ess'
'erlassen_'
'erkennt_'
'erkannt_'
'enth'
'entf'
'eno'
'enforcement_'
'ends_'
'endes_'
'ena'
'empfangen_'
'eme'
'elli'
'eld_'
'einzuführen_'
'eins_'
'eins'
'einheitliche_'
'einh'
'eingegangen_'
'eingebracht_'
'eignet_'
'eigenes_'
'een_'
'educated_'
'ede'
'economist_'
'eb'
'duties_'
'dung_'
'dul'
'dte'
'dritte_'
'dor_'
'doctors_'
'doctor_'
'displayed_'
'disasters_'
'ding'
'dialog_'
'determination_'
'des'
'derzeitige_'
'dens'
'demi'
'delighted_'
'defeat_'
'decorated_'
'debian_'
'deadline_'
'dd'
'davor_'
'dahin_'
'creditors_'
'crat'
'covering_'
'countless_'
'count_'
'correctly_'
'cooperate_'
'contributed_'
'compact_'
'cle'
'clause_'
'classes_'
'cker'
'cke_'
'cht'
'chef_'
'checking_'
'channel_'
'centr'
'centers_'
'cel'
'cc'
'cart'
'career_'
'cam'
'buses_'
'bug_'
'bs'
'bright_'
'bond_'
'bol'
'bisa_'
'bio'
'binding_'
'bill_'
'bewirken_'
'bewahren_'
'besar_'
'bes_'
'beruhen_'
'bel_'
'behoben_'
'behauptet_'
'beg'
'beantwortet_'
'be'
'basi'
'aver'
'ausländischen_'
'ausgeschlossen_'
'ausgedrückt_'
'ause'
'aufgeb'
'auff'
'att'
'ast'
'assa'
'artists_'
'artistic_'
'arian_'
'argumentieren_'
'appropriations_'
'ap_'
'annehmen_'
'angewiesen_'
'anderswo_'
'amp_'
'ami'
'ambition_'
'aktive_'
'ak'
'agen'
'aged_'
'adjustments_'
'adaptation_'
'actor_'
'acc'
'Zwei'
'Zu'
'Zen'
'Wit'
'Wir'
'Werten_'
'Werke_'
'We'
'Wal'
'WE'
'Vorstellungen_'
'Vorsitz_'
'Vorlage_'
'Viertel_'
'Vic'
'Vertretern_'
'Verteidigungspolitik_'
'Verst'
'Verluste_'
'Verf'
'Using_'
'Urteil_'
'Ukrainian_'
'Tunisia_'
'True_'
'Tru'
'Traum_'
'Transfer'
'Traditionen_'
'Town_'
'Tonnen_'
'The'
'Teilnehmer_'
'Tee'
'Tausende_'
'Taliban_'
'TO_'
'Straßburg_'
'Steuerzahler_'
'Staatsanleihen_'
'Spo'
'Spielen_'
'Spa'
'Soldaten_'
'Simbabwe_'
'Schätzungen_'
'Schwerpunkt_'
'Schreiben_'
'Schnell'
'Schlag'
'Schiff'
'Schie'
'Satz_'
'SU'
'Russians_'
'Rumänien_'
'Ruf_'
'Rot'
'Regional'
'Radio_'
'Professor_'
'Power_'
'Portuguese_'
'Politiken_'
'Playa_'
'Planeten_'
'Pl'
'Pis'
'Philosophie_'
'Pf'
'Personal'
'Performance_'
'Pas'
'Partnership_'
'Partnerschaften_'
'Parlaments'
'PI'
'PA'
'Orte_'
'Orient'
'Ok'
'Offenheit_'
'OP'
'Notes_'
'Northern_'
'Normen_'
'Nizza_'
'Nation_'
'NGOs_'
'NG'
'NCC_'
'Mot'
'Mittelmeer'
'Mitglieds'
'Missbrauch_'
'Minutes_'
'Minderheit_'
'Mess'
'Menschenhandel_'
'Mei'
'Mau'
'Mark'
'Mallorca_'
'Magi'
'Mach'
'Maastricht_'
'Lö'
'Luft_'
'Ltd_'
'Lounge_'
'Long_'
'Lim'
'Liberal'
'Lee_'
'Lake_'
'Lag'
'LO'
'Kritiker_'
'Korean_'
'Kompetenzen_'
'Ki'
'Kauf'
'Kara'
'Kai'
'Jugend'
'Jak'
'Invasion_'
'Indonesien_'
'Indonesia_'
'Indem_'
'Image_'
'Il_'
'ING_'
'Höchst'
'Hostels_'
'Hor'
'Hit'
'Hin'
'Hilfs'
'Hezbollah_'
'Have_'
'Hall_'
'Hafen_'
'Gua'
'Gor'
'Gipfeltreffen_'
'Gewicht_'
'Germans_'
'Gerichte_'
'Gericht_'
'Gegend_'
'Gast'
'Gard'
'Ganz_'
'Gal'
'GH'
'Fu'
'Friendly_'
'Fre'
'Franc'
'Fr'
'Fluss_'
'Fischer_'
'Finanzmärkte_'
'Fin'
'Fil'
'Festival_'
'Ferienwohnung_'
'Feld'
'Feier'
'Farben_'
'FO'
'Erstellung_'
'Energies'
'Einsch'
'Einkommens'
'Eigenschaften_'
'ER_'
'EL_'
'Drogen_'
'Dreh'
'Dort_'
'Di_'
'Description_'
'Democracy_'
'Dec'
'Dauer_'
'DS9_'
'Cons'
'Conf'
'Com'
'Cit'
'Church_'
'Christ_'
'Chef_'
'Chamber_'
'Canon_'
'Camp'
'Cambridge_'
'California_'
'CS'
'Bürgerinnen_'
'Bürger'
'Börse_'
'Bulgarien_'
'Bug'
'Bu'
'Briten_'
'Bol'
'Blut'
'Blo'
'Betrieb_'
'Besitz'
'Beratung_'
'Begleit'
'Be_'
'Bauern_'
'BS'
'BB'
'Außenminister_'
'Aus'
'Aufst'
'At'
'Assad_'
'Armen_'
'Ari'
'Arch'
'Anzeichen_'
'Antworten_'
'Anti_'
'Annehmlichkeiten_'
'Anl'
'Anhänger_'
'Angebote_'
'Ange'
'Ana'
'Amb'
'Air'
'Af'
'Acc'
'Abwe'
'Abr'
'Abd'
'Ab_'
'AV'
'92_'
'68_'
'51_'
'43_'
'40'
'32'
'19th_'
'1985_'
'17'
'02_'
'' '
'" '
' ?_'
' -'
' ,,_'
' ), _'
'ң_'
'та'
'й_'
'и_'
'ды_'
'ε'
'ökonomischen_'
'éa'
'ätig'
'ät'
'án_'
'ßt_'
'Überzeugung_'
'Überwachungs'
'Überleben_'
'Übergangs'
'Übereinkommen_'
'Überblick_'
'zusammenarbeiten_'
'zung_'
'zulassen_'
'zuf'
'zi_'
'zerstört_'
'zerstören_'
'zeiten_'
'zahl_'
'ystems_'
'younger_'
'yi'
'wr'
'worrying_'
'wiederholt_'
'wichtiges_'
'werfen_'
'welchen_'
'weiten_'
'wasser'
'warn'
'wahr_'
'vors'
'vorauss'
'vora'
'voices_'
'viertel_'
'viable_'
'veröffentlichte_'
'verz'
'verwaltung_'
'verr'
'verkehr_'
'verhalten_'
'verboten_'
'var'
'val_'
'uung_'
'ute_'
'urs'
'untersuchen_'
'unterscheiden_'
'ungsw'
'ungss'
'ungsf'
'ungs_'
'unc'
'unan'
'unabhängigen_'
'umge'
'ua_'
'tsche'
'tro_'
'tritt_'
'trib'
'treiben_'
'trees_'
'transportation_'
'transitional_'
'transferred_'
'tranquil'
'trained_'
'tragic_'
'tracks_'
'tra_'
'tr'
'topics_'
'ton'
'tlich_'
'tle'
'tl'
'ting'
'till_'
'tifi'
'tie'
'tickets_'
'tic'
'tes'
'territorial_'
'terra'
'tern'
'techno'
'taxi_'
'tat'
'tas'
'tables_'
'tab'
'systematic_'
'switch_'
'survival_'
'surf'
'supplementary_'
'summe'
'suited_'
'sucht_'
'subs'
'strict_'
'stream_'
'strange_'
'stood_'
'sting_'
'stimme_'
'steigenden_'
'stei'
'stehenden_'
'stars_'
'stammt_'
'stabiliz'
'staat_'
'spät_'
'spiel_'
'spezifischen_'
'socio'
'ske'
'sis'
'sil'
'significance_'
'sicheren_'
'sicher'
'settlements_'
'seri'
'sens'
'selben_'
'sehe_'
'seconds_'
'schä'
'schutz_'
'schrittweise_'
'schme'
'schm'
'satz_'
'sation_'
'sand'
'san_'
'safer_'
'sad'
'sab'
'rz'
'rut'
'ruh'
'rts_'
'rst'
'row_'
'roots_'
'ront'
'risk'
'rie'
'rhetoric_'
'rese'
'rer'
'reproduction_'
'remo'
'remarkable_'
'religiöse_'
'refers_'
'reductions_'
'recognised_'
'rechtliche_'
'rec'
'realistic_'
'realer_'
'react_'
'rbe'
'rau'
'rati'
'rasche'
'rans'
'rail_'
'racism_'
'quent'
'purchasing_'
'pur'
'provider_'
'proven_'
'promising_'
'progressive_'
'professor_'
'prisoners_'
'pride_'
'predicted_'
'praktischen_'
'potenzielle_'
'poli'
'pledge'
'pioneer'
'photograph'
'personenbezogene'
'perfekt_'
'painful_'
'pain_'
'overn'
'ov_'
'ously_'
'oto'
'ost'
'ose'
'oro'
'originally_'
'organiz'
'ord'
'optimale_'
'opi'
'ony_'
'onne'
'ong'
'one'
'ommen_'
'om_'
'ogi'
'og'
'oftmals_'
'offenbar_'
'offen'
'odu'
'odi'
'obliged_'
'nutz'
'nung_'
'nto'
'nowadays_'
'notes_'
'northern_'
'nk'
'nj'
'niedrig_'
'nieder'
'ney_'
'nent_'
'negativen_'
'nden'
'nci'
'natürliche'
'mögliche_'
'märkten_'
'murder_'
'mou'
'motiv'
'mona'
'modify_'
'moderate'
'modell_'
'mode'
'mittleren_'
'minor_'
'minds_'
'min'
'migrants_'
'mi_'
'mete'
'met'
'mess'
'mes_'
'mereka_'
'memper'
'mein'
'medicine_'
'meat_'
'measured_'
'mb'
'mail'
'magic_'
'lum'
'load_'
'lling_'
'lled_'
'lig'
'lift_'
'lid'
'lichkeiten_'
'library_'
'lenken_'
'legte_'
'leak'
'lav'
'lautet_'
'lat'
'langem_'
'lang'
'lai'
'künftigen_'
'könne_'
'korrekt_'
'kli'
'klaren_'
'kill_'
'kesehatan_'
'kel_'
'kehren_'
'kas'
'kana'
'jüngste_'
'jekt'
'jedenfalls_'
'itali'
'israelischen_'
'ise'
'ional_'
'involves_'
'invite_'
'investigation_'
'intervene_'
'inten'
'institutionellen_'
'inl'
'incredible_'
'incon'
'imo'
'immense_'
'illegalen_'
'ility_'
'ild'
'igkeiten_'
'igen'
'iel_'
'ideale_'
'ichts'
'ichten_'
'hyper'
'hr'
'hopes_'
'hood_'
'honest_'
'holders_'
'hlt_'
'histori'
'hinzufügen_'
'hinge'
'hilfe_'
'hierbei_'
'hes'
'heraus'
'hera'
'heil'
'hee'
'heads_'
'haft_'
'hab'
'günstig_'
'gültige'
'gä'
'gy_'
'gt'
'größtenteils_'
'gramm'
'governing_'
'gos'
'gnen_'
'gleichermaßen_'
'gier'
'gewählten_'
'genuinely_'
'geni'
'gefährliche_'
'gate'
'gaben_'
'fällen_'
'fä'
'fur'
'fundamental'
'fun'
'fro'
'fried'
'freundliche_'
'freely_'
'fre'
'foundations_'
'fortsetzen_'
'forschung_'
'forests_'
'football_'
'flee'
'flash_'
'flag_'
'fire'
'finish_'
'figur'
'ffe'
'ferner_'
'fanden_'
'fam'
'fails_'
'fahrt_'
'expenses_'
'expanded_'
'exp'
'examine_'
'exa'
'ew'
'everybody_'
'eti'
'ete_'
'ete'
'erzeugt_'
'ery_'
'erwähnen_'
'erwä'
'erweitern_'
'erte'
'erreichte_'
'ero'
'erne'
'erfolgreiche_'
'erer_'
'erd'
'entre'
'enthalt_'
'entertainment_'
'entering_'
'enta'
'enst'
'ensch'
'enn'
'ener_'
'endet_'
'encouraged_'
'employed_'
'emergence_'
'ement_'
'embrace_'
'eller_'
'elektronischen_'
'electric_'
'einverstanden_'
'eintreten_'
'eingerichtete_'
'eingehalten_'
'ego'
'egi'
'ee'
'eda'
'ec'
'ebe'
'easing_'
'dw'
'durchzusetzen_'
'dun'
'ds'
'drängen_'
'dream_'
'dot'
'dor'
'doors_'
'dm'
'distinction_'
'dispute_'
'disposal_'
'diskutiert_'
'dise'
'disa'
'directory_'
'director_'
'dim'
'dieselbe_'
'dictatorship_'
'deswegen_'
'destroy_'
'depth_'
'dependence_'
'departments_'
'department_'
'demonstrations_'
'definitely_'
'dating_'
'dark_'
'dak'
'cz'
'cut'
'critique_'
'credits_'
'cra'
'corporations_'
'conventions_'
'convenience_'
'contextual_'
'constructive_'
'considerations_'
'conduct_'
'cond'
'compete_'
'coherent_'
'codecision_'
'chl'
'chau'
'characterized_'
'cen'
'catch_'
'carrying_'
'busy_'
'bre_'
'bought_'
'bot_'
'bot'
'boards_'
'black'
'bit'
'bigger_'
'bezieht_'
'beträgt_'
'bestätigt_'
'bere'
'beings_'
'beibehalten_'
'behe'
'beglückwünschen_'
'begl'
'beeinflussen_'
'bedroh'
'bedeutende_'
'bau'
'barer_'
'barely_'
'band_'
'backing_'
'az'
'aw'
'authoritarian_'
'auftreten_'
'aufgeführt_'
'atte'
'att_'
'ato_'
'ata'
'assen_'
'apparently_'
'api'
'ap'
'ants_'
'ansehen_'
'ano_'
'anlagen_'
'anhaltenden_'
'angest'
'angebracht_'
'ands_'
'alts'
'alternatives_'
'alongside_'
'alität_'
'ali'
'aktuell_'
'ahm'
'aga'
'aft_'
'adverse_'
'advances_'
'adv'
'adds_'
'acknowledged_'
'achtet_'
'achen_'
'accused_'
'acceptance_'
'Zwecke_'
'Zusätzlich_'
'Zusatz'
'Zimmerservice_'
'Zielen_'
'Zerstörung_'
'You'
'Wirksamkeit_'
'Wi'
'Werkzeuge_'
'Welcome_'
'Weg'
'Ware_'
'Wander'
'Wall'
'Wahrscheinlichkeit_'
'Waffen'
'WHO_'
'Vorbild_'
'Virus_'
'Verz'
'Versprechen_'
'Verringerung_'
'Vermögenswerte_'
'Verkauf_'
'Verhaltens'
'Verh'
'Vereinigte_'
'Ver'
'Vene'
'Up_'
'Umweltschutz_'
'Umge'
'US'
'UE'
'Tätigkeit_'
'Typ_'
'Tool_'
'Todesstrafe_'
'Tibet_'
'Three_'
'Ten'
'Temple_'
'Temperaturen_'
'Teams_'
'Südkorea_'
'Sus'
'Sul'
'Structural_'
'Stre'
'Still_'
'Stahl'
'Spi'
'Spezial'
'Sound_'
'Sky'
'Situationen_'
'Sit'
'Sir'
'Sign'
'Siehe_'
'Sicherheitspolitik_'
'Service'
'Section_'
'Scotland_'
'Schwäche_'
'Schon_'
'Schloss_'
'Schli'
'Schle'
'Schalt'
'Sach'
'SE_'
'Rücks'
'Rä'
'Rub'
'Rom_'
'Ret'
'Republican_'
'Rechtsstaatlichkeit_'
'Rechten_'
'Rechnungs'
'Rat'
'Rand'
'RT'
'RO'
'RM'
'Qui'
'Prozess'
'Projekts_'
'Procedure_'
'Presse_'
'Potenzial_'
'Pos'
'Pol'
'Pflicht_'
'Passwort_'
'Pakt_'
'PR'
'PO'
'PD'
'Out_'
'Orl'
'Organization_'
'Off'
'Od'
'Niederlage_'
'Nichtraucherzimmer_'
'Netzwerk_'
'Net'
'Mir_'
'Mini'
'Milosevic_'
'Mechanismus_'
'Mc'
'Maschinen_'
'Martin'
'Mar_'
'Mandat_'
'Manchmal_'
'Manage'
'Mak'
'Mai'
'MPEG_'
'MP3_'
'Löhne_'
'Light'
'Lie'
'Leitung_'
'Leitlinien_'
'Lehr'
'Later_'
'Lac'
'LIN'
'Kö'
'Kru'
'Konvention_'
'Konto_'
'Kons'
'Kongress_'
'Kompromiss'
'Kernel_'
'KORE_'
'KE'
'KA'
'Jung'
'Jordanien_'
'Jackson_'
'Jack'
'Internal_'
'Interessen'
'Instruments_'
'Innovationen_'
'Inf'
'Indi'
'IP'
'ION_'
'ID'
'Hinzu'
'Herz'
'Henry_'
'Heil'
'Hei'
'Harvard_'
'HI'
'Gästen_'
'Grünbuch_'
'Griechenlands_'
'Governments_'
'Gott_'
'Golf'
'Gleichstellung_'
'Gh'
'Gewerkschaften_'
'Gew'
'Gesicht_'
'Gener'
'Gemeinschaften_'
'Gem'
'Gel'
'Gehminuten_'
'Gebrauch_'
'Fuß'
'Fur'
'Friedens_'
'Freizügigkeit_'
'Free'
'Frankreichs_'
'Frank'
'Framework_'
'Fol'
'Flughäfen_'
'Flo'
'Flash_'
'Firefox_'
'Fernseh'
'Fehl'
'Fast_'
'Fahrzeuge_'
'Fa'
'Exp'
'Esta'
'Ents'
'Elite_'
'Einwanderer_'
'Einstellungen_'
'Einnahmen_'
'Einfluss'
'Eigentum_'
'Egyptian_'
'Edition_'
'EX'
'EM'
'EIB_'
'EI'
'EG_'
'ED_'
'ED'
'Dä'
'Dy'
'Durchsetzung_'
'Dublin_'
'Drogen'
'Dritten_'
'Drittel_'
'Don_'
'Dienst_'
'Deswegen_'
'Design'
'Department_'
'Denmark_'
'Dek'
'Cur'
'Cruz_'
'Country_'
'Cou'
'Colombia_'
'Col'
'Client_'
'Cla'
'Chal'
'Ch'
'Card'
'Can'
'Burma_'
'Brok_'
'Bro'
'Br'
'Bez'
'Bewohner_'
'Beweise_'
'Beurteilung_'
'Bett'
'Berichten_'
'Beobachter_'
'Befürworter_'
'Befugnisse_'
'Beachtung_'
'Baum'
'Based_'
'BU'
'BC_'
'Automobil'
'Ausstattung_'
'Ausst'
'Ausr'
'Asyl'
'Aspekten_'
'Architektur_'
'Arafat_'
'Ansichten_'
'Ans'
'Anonymous_'
'Anliegen_'
'Angriffe_'
'Andr'
'Andererseits_'
'Allein_'
'Ali'
'Act'
'Ac'
'Abschnitt_'
'Absatz_'
'Abf'
'66_'
'62_'
'54_'
'46_'
'35'
'29'
'1980s_'
'1960_'
'180_'
'.) _'
'. - _'
'. &#_'
''', _'
' ; _'
' +_'
' + _'
' "'
'…"..._'
'’'
'–_'
'üssen_'
'üg'
'év'
'éc'
'äts'
'äss'
'änge_'
'ält'
'ßte'
'ße_'
'Übrigen_'
'Übertragung_'
'Übernahme_'
'Übernachtung_'
'Überdies_'
'Ära_'
'zweitens_'
'zuzu'
'zug'
'ziel_'
'zie'
'zeigte_'
'zb'
'zahlungen_'
'yu'
'you'
'yield_'
'yc'
'würdigen_'
'worthy_'
'wonder'
'wise_'
'willingness_'
'wider'
'werke_'
'welcomes_'
'welchem_'
'weis'
'wards_'
'ward_'
'waffen_'
'vulnerability_'
'vorhandenen_'
'voran_'
'vollständigen_'
'viv'
'vit'
'vil'
'vielfältige'
'vid'
'vessels_'
'verä'
'versuch'
'verst'
'versorgung_'
'versichern_'
'verlor_'
'verkauft_'
'verbreitet_'
'venture_'
'vely_'
'vegeta'
'vas'
'vacation_'
'uta'
'uste'
'urn'
'ure'
'unterstützte_'
'unterge'
'unta'
'unsustainable_'
'unions_'
'unin'
'ungsm'
'ung'
'unentgeltlich_'
'underlying_'
'underground_'
'undergo'
'unab'
'un'
'umb'
'uis'
'ude'
'ucht_'
'tätigen_'
'täglichen_'
'tw'
'tte'
'tsch'
'trick'
'tras'
'traditions_'
'tolerance_'
'tip'
'tig'
'thumbnail_'
'throw_'
'texts_'
'teuer_'
'tested_'
'termin'
'tent'
'tensions_'
'tene'
'tendency_'
'teils_'
'techniques_'
'tec'
'tari'
'sämtliche_'
'sympathy_'
'sver'
'surveillance_'
'surroundings_'
'suppliers_'
'supervision_'
'superior_'
'succ'
'subsequently_'
'strategi'
'straightforward_'
'str'
'stored_'
'stoppen_'
'sth'
'stelle_'
'steigt_'
'stattfindet_'
'starten_'
'stan_'
'stake_'
'ssu'
'ssen'
'späten_'
'spiegelt_'
'spiegel'
'speziell_'
'sowjetischen_'
'sole_'
'smit'
'sixt'
'situ'
'silence_'
'sig'
'side'
'sicherstellen_'
'sichere_'
'shot_'
'shel'
'settings_'
'servers_'
'seperti_'
'sending_'
'selling_'
'sekarang_'
'sek'
'screens_'
'score_'
'scientists_'
'schätzen_'
'schwerer_'
'schwachen_'
'schutz'
'schri'
'schlimmsten_'
'schlechten_'
'sama_'
'sai'
'rücken_'
'rä'
'ruktur'
'rsch'
'rp'
'rose_'
'ron'
'rob'
'rma'
'rl'
'rken_'
'rium_'
'ris_'
'rier'
'rid'
'rh'
'rgi'
'revenues_'
'reu'
'restricted_'
'responses_'
'respect'
'reserved_'
'render'
'reich'
'regulate_'
'regionen_'
'regelung_'
'refuse_'
'reforme'
'recruit'
'rechtzeitig_'
'rech'
'receiving_'
'rece'
'reagiert_'
'read'
're'
'rai'
'ragen_'
'queries_'
'qualifi'
'qi'
'q_'
'pä'
'put'
'pue'
'publicly_'
'proximity_'
'province_'
'prominent_'
'professionals_'
'producer_'
'problem'
'pris'
'prinzip_'
'preserve_'
'preferred_'
'ppe'
'port'
'polnischen_'
'polls_'
'politi'
'planen_'
'pipeline_'
'pillar_'
'permit_'
'performed_'
'perceived_'
'pens'
'pe'
'paying_'
'past'
'pas_'
'parameters_'
'pala'
'pak'
'pack'
'pa_'
'orn'
'orit'
'ore_'
'order'
'ora_'
'opti'
'ops_'
'onia_'
'oleh_'
'oke'
'oi'
'officers_'
'offens'
'occupied_'
'observed_'
'observations_'
'nützlich_'
'ntin'
'nsu'
'novel'
'noticed_'
'nominal_'
'nni'
'nne'
'nn_'
'nin'
'ngan_'
'netz_'
'nem'
'negotiate_'
'ndung_'
'ndel'
'ncy_'
'nche'
'nati'
'nant_'
'nachfrage_'
'märkte_'
'mächtigen_'
'má'
'mt_'
'mono'
'moderate_'
'mobility_'
'mme_'
'minder'
'mier'
'merc'
'menc'
'mena'
'mema'
'melt'
'mel'
'mehr'
'medieval_'
'max_'
'mate'
'machten_'
'lösung_'
'lässig'
'lung_'
'lter_'
'lon_'
'llte_'
'listings_'
'lip'
'lin'
'life'
'lic'
'leichter_'
'legacy_'
'lbe'
'lb'
'lateral'
'langer_'
'lah'
'lag'
'lab'
'künftig_'
'kü'
'ktor'
'kritisiert_'
'kri'
'kredit'
'kostenlose_'
'kontextuellen_'
'kontextuell_'
'konst'
'konse'
'komplexe_'
'kommunistischen_'
'kleineren_'
'klarer_'
'kit_'
'kette_'
'kes_'
'kers_'
'kennt_'
'kem'
'keen_'
'kat'
'jährige_'
'jara'
'jar'
'iz'
'ively_'
'iter'
'ish'
'isa'
'iri'
'iranische_'
'ira'
'ions'
'investiert_'
'interpretation_'
'internationales_'
'interessante_'
'intensi'
'intends_'
'intelligent_'
'instructions_'
'instantly_'
'inspired_'
'inspection_'
'initiated_'
'inhabitants_'
'inflows_'
'indu'
'indicators_'
'inclusion_'
'importantly_'
'ille'
'ification_'
'ideology_'
'iche_'
'ic'
'ib'
'hü'
'hältnis'
'hydro'
'hung_'
'hte'
'hs'
'hor'
'honour_'
'hoff'
'hl_'
'hire_'
'hinzufugen_'
'hidden_'
'heutige_'
'hes_'
'hervorragenden_'
'hervorheben_'
'hervorgehoben_'
'herunterladen_'
'herunter'
'herausge'
'heat_'
'healthy_'
'hd'
'hast_'
'hart_'
'harmful_'
'harder_'
'hamm'
'halt'
'hack'
'guided_'
'gründen_'
'gründe'
'gru'
'gross_'
'grati'
'grammatisch_'
'grab'
'governmental_'
'gol'
'gne_'
'gk'
'gg'
'geäußert_'
'gewonnen_'
'gewinn'
'gewicht'
'gewachsen_'
'get'
'gesto'
'gestartet_'
'gest'
'gesellschaftliche_'
'geschw'
'gesch'
'gerü'
'geprüft_'
'gens'
'generous_'
'generell_'
'geli'
'gelang_'
'geistigen_'
'gefördert_'
'gefragt_'
'gebildet_'
'gear'
'gat'
'gaining_'
'ful'
'fueled_'
'friedlichen_'
'frequency_'
'frame_'
'fra'
'foster_'
'fordere_'
'forcing_'
'fli'
'flaw'
'flags_'
'fix_'
'firmly_'
'finanz'
'films_'
'fie'
'festival_'
'fee_'
'fans_'
'fan'
'falsche_'
'facts_'
'facilitate_'
'extremists_'
'expressing_'
'explo'
'experiences_'
'expenditures_'
'expanding_'
'executive_'
'evident_'
'ett'
'eth'
'estimates_'
'esch'
'erzeugen_'
'ersetzen_'
'erlebt_'
'erkunden_'
'eric'
'erhöhte'
'erholen_'
'erhoben_'
'erforderliche_'
'erei'
'erarbeitet_'
'eo_'
'environmentally_'
'entst'
'entdeckst_'
'ensures_'
'ensi'
'enjoying_'
'enjoyed_'
'ening_'
'englische'
'enger_'
'enge_'
'energie_'
'enemy_'
'enb'
'emotional_'
'embark'
'em'
'eite'
'eis'
'eingeschränkt_'
'eingel'
'eindeutige_'
'ehemalige_'
'ega'
'effektive_'
'eate'
'earn_'
'ean'
'durchs'
'dungen_'
'dru'
'drives_'
'dramatisch_'
'dramatically_'
'dol'
'dignity_'
'digit'
'die'
'desto_'
'desktop_'
'desk_'
'designer_'
'deserve_'
'description_'
'describe_'
'ders_'
'dern_'
'derartigen_'
'depending_'
'denk'
'dem'
'defi'
'def'
'dau'
'das'
'customs_'
'cua'
'cro'
'creat'
'courts_'
'count'
'corrupt_'
'cope_'
'conveniently_'
'consult'
'constraints_'
'connect_'
'confronted_'
'confrontation_'
'confront_'
'concentration_'
'complicated_'
'comparison_'
'communism_'
'commit_'
'combine_'
'collect_'
'closing_'
'clarity_'
'civilians_'
'cit_'
'circle_'
'cian'
'cia_'
'chung_'
'chtung_'
'chts'
'chtlich_'
'chte'
'chant'
'challenging_'
'cepti'
'cell_'
'cand'
'camp_'
'büro'
'bö'
'broadcast'
'bro'
'brechen_'
'brauch'
'boosting_'
'bon_'
'blog_'
'blind'
'billig'
'bez'
'bevölkerung_'
'betont_'
'besonderer_'
'bes'
'bert_'
'berge'
'berat'
'believes_'
'belegt_'
'beitr'
'begrüßt_'
'begründet_'
'beenden_'
'band'
'ball'
'bail'
'bai'
'bags_'
'bagi_'
'bag'
'bad'
'backs_'
'authors_'
'aut'
'ausschusses_'
'aussch'
'ausgeführt_'
'ausführliche'
'ausführ'
'aufgegeben_'
'aufgefordert_'
'aufbauen_'
'atic_'
'asso'
'ass_'
'arrest_'
'aria'
'arg'
'arbitrary_'
'appearance_'
'app'
'antr'
'anonym'
'annt'
'anischen_'
'angewandt_'
'angesehen_'
'anger_'
'angepasst_'
'anerkennen_'
'anerkannte'
'ament'
'alp'
'alisierung_'
'akt'
'affecting_'
'accurate_'
'abst'
'abi'
'abgelehnt_'
'abandon_'
'Zus'
'Zugeständnisse_'
'Zucker'
'Zone_'
'Zimmer'
'Zimbabwe_'
'Ye'
'Wort'
'Wissenschaft'
'Widerstands'
'Widerspruch_'
'Wichtigkeit_'
'Werbung_'
'Wende'
'Weiß'
'Weit'
'Wechselkurs_'
'Webseiten_'
'Watson_'
'Water'
'Waren'
'Wahr'
'WC_'
'WASHINGTON_'
'WAR'
'Vorgehensweise_'
'Vi'
'Vert'
'Verge'
'Verd'
'Verbündeten_'
'Veranstaltungen_'
'Veranstaltung_'
'Vera'
'VER'
'User_'
'Until_'
'Transa'
'Trag'
'Tourismus_'
'Top'
'Thu'
'Tha'
'Textil'
'Tas'
'Tarifa_'
'Tan'
'TE_'
'Sä'
'Subventionen_'
'Sturz_'
'Studenten_'
'Str'
'Stor'
'Stockholm_'
'Stell'
'Stau'
'Stat'
'Sports_'
'Spielraum_'
'Space_'
'Sound'
'Sol_'
'Sof'
'Siemens_'
'Sie'
'Sicherheitsrat_'
'Shar'
'Serb'
'Ser'
'Senkung_'
'Sen'
'Sektors_'
'Schwer'
'Schwellenländern_'
'Schwei'
'Schw'
'Schu'
'Schrift'
'Schlusselwort_'
'Schlusselphrase_'
'Salz'
'Russ'
'Rules_'
'Rubrik_'
'Rose'
'Right_'
'Ric'
'Rela'
'Reg'
'Ref'
'Rather_'
'Provence_'
'Project_'
'Prognosen_'
'Prize_'
'Praktiken_'
'Positionen_'
'Porto_'
'Pod'
'Plus_'
'Plat'
'Phänomen_'
'Pers'
'Pen_'
'Peace_'
'Patri'
'Park'
'Papier'
'Papa'
'Pana'
'Palma_'
'Palm'
'Pal'
'Pad'
'PC'
'PARIS_'
'Original'
'On'
'OF_'
'Null'
'Notenbank_'
'Nordkorea_'
'Nord_'
'Netto'
'Nationalismus_'
'Nar'
'Mutter_'
'Mut_'
'Muslime_'
'Morocco_'
'Monitor'
'Modelle_'
'Migration_'
'Mid'
'Metro_'
'Meter_'
'Medizin_'
'Material_'
'Marina_'
'Mani'
'Manager_'
'Mana'
'Malaria_'
'Mail'
'Mah'
'MM'
'MD'
'Ly'
'Logik_'
'Lit'
'Listings_'
'Link_'
'Liefer'
'Libyen_'
'Lib'
'Let'
'Lernen_'
'Lehren_'
'Laun'
'Lau'
'Lastly_'
'Laeken_'
'Kürze_'
'Kriege_'
'Kopenhagen_'
'Komplex'
'Kle'
'Kl'
'Kie'
'Kapazitäten_'
'Kann_'
'Kandidat'
'Kanada_'
'Jun'
'Jer'
'Iran'
'Irak'
'Investition_'
'Install'
'Ingenieur'
'Industrieländern_'
'Industrieländer_'
'Import'
'Immobilien_'
'IBM_'
'IB'
'Hunger_'
'Hunde'
'Hum'
'Hongkong_'
'Hol'
'Hitler_'
'Histori'
'Haut'
'Haushaltsdefizit'
'Haupts'
'Halb'
'Had'
'HO'
'HD'
'Güter_'
'Gulf_'
'Guide_'
'Große_'
'Großbritanniens_'
'Growth_'
'Governance_'
'Gla'
'Get_'
'Gestaltung_'
'Geschlechter'
'Genu'
'Gene'
'Geber'
'Games_'
'GP'
'Funktions'
'Fro'
'Friday_'
'Fri'
'Freunden_'
'Fraktionen_'
'Fortunately_'
'Force_'
'Food_'
'Florence_'
'Fle'
'Fischler_'
'Fisch_'
'Finnland_'
'Finanzsystem_'
'Finanzs'
'Finanzen_'
'FT'
'FS'
'FE'
'FD'
'Export_'
'Existenz_'
'Exchange_'
'Eta'
'Este'
'Essen_'
'Erwachsene_'
'Entwicklungsp'
'Effektivität_'
'EN'
'Dokumente_'
'Dim'
'Det'
'Democratic_'
'Def'
'Dea'
'De'
'Davos_'
'Darfur_'
'Daniel_'
'DA_'
'Cy'
'Creati'
'Content_'
'Consumer_'
'Comp'
'Communist_'
'Clubs_'
'Civil_'
'Chan'
'Casino_'
'Café_'
'CT'
'CM'
'CA_'
'Bürokratie_'
'Büro'
'Bun'
'Bucht_'
'Boot_'
'Black'
'Billionen_'
'Betten_'
'Berlusconi_'
'Berg_'
'Benutzer'
'Belgien_'
'Bele'
'Beifall_'
'Beha'
'Bedürfnissen_'
'Bearbeitung_'
'Bay'
'Base_'
'Band_'
'Bahn'
'Badezimmer_'
'Az'
'Außen_'
'Autor_'
'Autonomie_'
'Aussichten_'
'Ausmaß_'
'Ausgangspunkt_'
'Aufr'
'Aufnahme'
'Aufforderung_'
'Ast'
'Arte'
'Argumente_'
'Argument_'
'Ap'
'Ansätze_'
'Anleihen_'
'Angl'
'And'
'Ami'
'Alters'
'Alta'
'Allianz_'
'Album_'
'Aktien_'
'Ah'
'Agrarpolitik_'
'Age_'
'Act_'
'Ablehnung_'
'Ablauf_'
'AS_'
'AC_'
'96_'
'90'
'88_'
'86_'
'67_'
'61_'
'57_'
'33'
'27'
'236'
'2050_'
'1990s_'
'185'
'04'
'001'
',/_'
', ‘_'
'+ _'
'); _'
'%-_'
'%'
'! '
' ("_'
' &_'
'�'
'” '
'“ – _'
'ш'
'по'
'м_'
'ли'
'ко'
'ка'
'ер'
'ва'
'ар'
'üstung_'
'ül'
'ührung_'
'üche_'
'übrigens_'
'überwiegend_'
'übernahm_'
'überf'
'österreichischen_'
'öse_'
'öffentlich'
'ô'
'í_'
'ë'
'én'
'è_'
'ç'
'äus'
'äum'
'ärmsten_'
'änden_'
'äl'
'Überl'
'°_'
' –, _'
'}}) _'
'| _'
'{_'
'zö'
'zy'
'zuständigen_'
'zust'
'zus'
'zukommen_'
'zub'
'zivil'
'zit'
'zins'
'zes_'
'zentraler_'
'zentral_'
'zen'
'zahlt_'
'yields_'
'yea_'
'xa'
'wort_'
'worried_'
'worker_'
'wohl'
'witness_'
'wissenschaftliche_'
'winning_'
'wild_'
'widmen_'
'whereby_'
'wh'
'weshalb_'
'werken_'
'weite_'
'weigh'
'weapon_'
'weaker_'
'was'
'warrant'
'warme'
'wander'
'wand'
'walt'
'walls_'
'wahlen_'
'vorzunehmen_'
'vorzulegen_'
'vorsieht_'
'vorn'
'vore'
'vollst'
'volatility_'
'vist'
'visa_'
'virtual_'
'villages_'
'vez_'
'verwiesen_'
'verwe'
'versicherung'
'versetzen_'
'verse'
'verschwinden_'
'verschiedener_'
'verschaffen_'
'versch'
'versa'
'verliert_'
'verletzt_'
'verhe'
'verh'
'vergeben_'
'verge'
'verfügbaren_'
'verd'
'verbr'
'verbinden_'
'vera'
'vari'
'valuable_'
'vak'
'uto'
'uti'
'uri'
'updated_'
'unzureichend_'
'unw'
'unusual_'
'unterwegs_'
'unterschiedlich_'
'untern'
'unprecedented_'
'unpa'
'ungew'
'undi'
'unders'
'unden_'
'unau'
'umr'
'ukan_'
'ui_'
'ugs'
'uga'
'uc'
'ually_'
'u0027s_'
'türkische_'
'tätigkeit_'
'tänd'
'tube_'
'tu_'
'tter'
'très_'
'träger_'
'triumph'
'treaties_'
'travellers_'
'transformation_'
'trafficking_'
'trace'
'tow'
'tors_'
'toll_'
'tol'
'tionally_'
'tional_'
'til'
'thumb_'
'ths_'
'thousand_'
'thirds_'
'thir'
'thi'
'theo'
'terrible_'
'tens_'
'tellung_'
'tell'
'teams_'
'taxation_'
'tax'
'tar_'
'tana'
'sus_'
'sus'
'surprising_'
'suddenly_'
'substantially_'
'stü'
'stunning_'
'stunde_'
'studied_'
'studie'
'student_'
'strukturelle_'
'struktur_'
'stro'
'stoff'
'stle'
'stimulate_'
'stic'
'steigende_'
'steer'
'stages_'
'stabilize_'
'ssion_'
'ssion'
'ssch'
'ssa'
'spor'
'spl'
'spiel'
'spi'
'spect'
'specifications_'
'speaker_'
'spart'
'spar'
'spanischen_'
'sounds_'
'sorgt_'
'som'
'sol'
'smi'
'slowdown_'
'slopes_'
'slight_'
'slave'
'skin_'
'simultaneously_'
'sieren_'
'sie'
'shrink'
'shifts_'
'sharply_'
'sex'
'sett'
'ses'
'sent'
'senden_'
'semi'
'seits_'
'seit'
'segment'
'sec'
'schönsten_'
'schwieriger_'
'schwere_'
'schwach_'
'schuld'
'schlimm'
'schlicht_'
'schau'
'schaften_'
'scene_'
'sba'
'sav'
'saubere_'
'sat'
'sant'
'sand_'
'sache'
'rse'
'rov'
'routes_'
'ros'
'rolle_'
'roll'
'roles_'
'rock_'
'rku'
'rien'
'rieg'
'ria_'
'reverse_'
'retain_'
'resse'
'resign'
'researchers_'
'res'
'requiring_'
'requests_'
'rent'
'rena'
'rel'
'rek'
'reinforcing_'
'reine_'
'reihe'
'reiben_'
'regulat'
'referring_'
'red'
'reali'
'rar'
'racing_'
'quin'
'quil'
'quantities_'
'qualitative_'
'pursuing_'
'pursued_'
'punkt'
'proud_'
'protest'
'prote'
'private'
'prim'
'preventing_'
'prevented_'
'prevailing_'
'pressures_'
'presenting_'
'prefer'
'predict_'
'ppi'
'ppen_'
'pou'
'posts_'
'positiven_'
'pools_'
'pm_'
'plötzlich_'
'plu'
'ple_'
'platforms_'
'planung_'
'plant'
'pick'
'physi'
'pet_'
'pers'
'periphery_'
'performing_'
'pel_'
'patio_'
'passing_'
'pas'
'partition_'
'part'
'palästinensische_'
'pakete_'
'pag'
'owners_'
'overseas_'
'ossen_'
'ories_'
'oriented_'
'organis'
'org'
'ores_'
'orc'
'operated_'
'opera'
'ono'
'oned_'
'ole'
'ois'
'ogen'
'oga'
'og_'
'officially_'
'nächster_'
'nos_'
'normale_'
'non'
'nobody_'
'nl'
'nko'
'nissen_'
'nig'
'nh'
'neuro'
'nell'
'neighbourhood_'
'nehme_'
'negotiation_'
'nau'
'native_'
'namens_'
'nai'
'nahmen_'
'nachzu'
'mächtig'
'm²_'
'museum_'
'monopoly_'
'mol'
'moderner_'
'mobilis'
'mmi'
'mmer_'
'missions_'
'missile_'
'miss_'
'minu'
'mill'
'milk_'
'militärischer_'
'merit'
'mente_'
'menja'
'mengen'
'mene'
'medizinischen_'
'mediat'
'meaningful_'
'maßen_'
'master'
'massiven_'
'mart'
'mar_'
'manu'
'mano'
'mals_'
'mach'
'm2_'
'lur'
'lungen_'
'lowest_'
'low'
'losen_'
'loi'
'logische'
'locker'
'lk'
'lität_'
'linear_'
'lie'
'leng'
'leiten_'
'leiden_'
'leib'
'legend'
'lance_'
'lament'
'lalu_'
'lak'
'lager_'
'lacks_'
'kun'
'kten_'
'kte_'
'kritische_'
'konzipiert_'
'kontra'
'konstruktive_'
'kommerziellen_'
'kol'
'kne'
'klima'
'kek'
'kat_'
'juga_'
'judicial_'
'journey_'
'jointly_'
'jetzigen_'
'jer'
'jahr'
'ivi'
'itu_'
'ith'
'ister'
'ising_'
'isiert_'
'ised_'
'isch'
'iro_'
'irischen_'
'irgend'
'ional'
'io'
'investing_'
'investieren_'
'interven'
'internen_'
'interm'
'institutionelle_'
'inst'
'inso'
'insist_'
'inos_'
'inn'
'ining_'
'inge'
'incidents_'
'inci'
'inal'
'impos'
'imme'
'ime_'
'ile'
'ila'
'iklim_'
'ika_'
'igra'
'ierungen_'
'ieben_'
'höchst_'
'hur'
'human'
'hro'
'host'
'hom'
'hochwertige'
'hochge'
'hinaus'
'hill_'
'heu'
'herstell'
'harten_'
'harmonisation_'
'happiness_'
'hall_'
'hair_'
'hai'
'guard_'
'grund'
'grew_'
'grenzen_'
'greifen_'
'gratulieren_'
'gran'
'gon'
'gis'
'gio'
'gh'
'gewählte_'
'getötet_'
'gestr'
'geschäft'
'geräumige'
'gerät_'
'geringer_'
'genes_'
'generate_'
'gemeinschaftlichen_'
'gemeinsamer_'
'gelassen_'
'gegangen_'
'gefährlich_'
'gefolgt_'
'gefe'
'gebühr'
'geboten_'
'gd'
'ganze'
'gam'
'führer_'
'führe'
'frische'
'freundliches_'
'fran'
'fragment'
'forums_'
'forth_'
'formation_'
'forge_'
'folder_'
'focuses_'
'fläche_'
'fle'
'fine'
'finds_'
'finanzierung_'
'finances_'
'fig'
'fft_'
'ffic'
'ffi'
'fer_'
'feet_'
'featuring_'
'fault_'
'ey'
'extremen_'
'expos'
'exporting_'
'exhibit'
'execution_'
'exe'
'excuse_'
'exceptions_'
'exc'
'exact_'
'everyday_'
'ever'
'essen'
'esca'
'erzielte_'
'ersetzt_'
'erse'
'erre'
'err'
'erode'
'ernst'
'erl'
'erklärung_'
'ergänzen_'
'erbe'
'enze'
'entr'
'entdecken_'
'ense'
'ener'
'enemies_'
'endgültigen_'
'empfängt_'
'empfehlen_'
'emp'
'emo'
'emission'
'embedded_'
'elegante_'
'electrical_'
'ekonomi_'
'eist'
'einzusch'
'einstellen_'
'einst_'
'einrichtungen_'
'einkommen_'
'eingestellt_'
'eingesch'
'eigentliche_'
'ehe'
'eg_'
'effizienter_'
'ees_'
'eba'
'dürften_'
'dynamism_'
'dynami'
'durchge'
'dur'
'dr'
'downturn_'
'dorthin_'
'domin'
'dism'
'discovery_'
'disagree_'
'disabled_'
'direkt'
'dil'
'differ'
'dieselben_'
'dienste_'
'dien'
'dic'
'deutliche_'
'deuten_'
'detaillierte'
'derl'
'denkt_'
'deni'
'demanded_'
'delivery_'
'defining_'
'defin'
'deckt_'
'deck'
'decent_'
'deb'
'daz'
'dasselbe_'
'darstell'
'cycli'
'cyber'
'cted_'
'credit'
'credible_'
'covers_'
'costly_'
'controlling_'
'contract'
'consolidation_'
'consists_'
'conscious'
'conc'
'compliance_'
'como_'
'committees_'
'comme'
'colors_'
'cm_'
'clock_'
'clip'
'cler'
'cia'
'chni'
'chne'
'chlag'
'ched_'
'characters_'
'chaos_'
'champion'
'chair_'
'cet'
'ceme'
'ced_'
'cara_'
'capita_'
'calm_'
'bury_'
'bungen_'
'broadly_'
'brit'
'bric'
'breed'
'bracht_'
'bra'
'boundaries_'
'boat_'
'bn'
'blow'
'bing_'
'big'
'bha'
'bewiesen_'
'beweisen_'
'betrieben_'
'beste'
'best'
'benutzer'
'benefited_'
'bekannte_'
'bekam_'
'behindert_'
'begr'
'bedürf'
'bedroht_'
'beding'
'bedeutsame'
'batt'
'aß'
'award_'
'awa'
'avi'
'avec_'
'ava'
'aux_'
'auszuüben_'
'aussehen_'
'ausgewogene'
'ausgew'
'ausger'
'ausgelöst_'
'ausgeb'
'auseinander_'
'aufweist_'
'aufw'
'aufges'
'aufb'
'attraktive_'
'attract_'
'attended_'
'attend_'
'atr'
'asymmetri'
'aster'
'aspirations_'
'artificial_'
'arn'
'arme_'
'argues_'
'ard'
'archive_'
'arat'
'appl'
'apo'
'anzuwenden_'
'anzupassen_'
'anwenden_'
'answers_'
'anlage_'
'anhand_'
'anh'
'angemessen_'
'angef'
'angeb'
'andel'
'anda'
'amt_'
'alo'
'allzu_'
'allerg'
'alist'
'alis'
'ales_'
'aler_'
'ald'
'aku'
'aki'
'aj'
'airline_'
'aine'
'ahr'
'ahn'
'aha'
'agi'
'afrika_'
'aer'
'advised_'
'advise'
'adult_'
'ada'
'actors_'
'acted_'
'accounting_'
'accelerating_'
'aca'
'absolut_'
'abrupt'
'abo'
'abgest'
'abgesehen_'
'abg'
'abend'
'aben_'
'aan_'
']], [[_'
'] '
'Zust'
'Zur'
'Zugleich_'
'Youth_'
'Yas'
'XP_'
'XI'
'Wäscheservice_'
'Wärme'
'Wä'
'Wunder'
'Wu'
'Wissenschaftler_'
'Wirtschaftsp'
'Wirtschaftsf'
'Wirtschafts_'
'Wireless_'
'Wiederherstellung_'
'Wie'
'Wettbewerbs_'
'Wesen_'
'Werbe'
'Wer'
'Wen'
'Wein_'
'Wei'
'Websites_'
'Wea'
'Vorschlags_'
'Vorr'
'Vork'
'Vorhaben_'
'Vorf'
'Vollbeschäftigung_'
'Viertens_'
'Vertrags'
'Verteilung_'
'Versorgungs'
'Versorgung_'
'Verletzung_'
'Verle'
'Verla'
'Verk'
'VI_'
'Urlaubs'
'Unternehmer_'
'Unterkünfte_'
'Unt'
'Unf'
'UM'
'Typ'
'Twitter_'
'Ts'
'Trend_'
'Tot'
'Thursday_'
'Thomas_'
'Third_'
'Thai_'
'Tempo_'
'Telefon_'
'Take_'
'Tagung_'
'Systemen_'
'Sun'
'Summe_'
'Suites_'
'Struktur'
'Strom_'
'Strand'
'Stoffe_'
'Standort_'
'Stabilitäts_'
'Spring_'
'Spitzen'
'Sonne_'
'Solange_'
'Smoking_'
'Situated_'
'Sicherheits_'
'Sicher'
'Shuttle_'
'Should_'
'Shop_'
'Sevilla_'
'Seba'
'Sco'
'Schmerz'
'Schlag_'
'Schl'
'Schei'
'Salo'
'Sala'
'Sai'
'Sachen_'
'Russen_'
'Ross'
'Rit'
'Ris'
'Rhetorik_'
'Rettungs'
'Resi'
'Rese'
'Rena'
'Real_'
'Reagan_'
'Ratifizierung_'
'Rap'
'Radio'
'RER_'
'Provinz_'
'Programm'
'Produzenten_'
'Produktivität_'
'Press_'
'Presidents_'
'Post_'
'Pont'
'Poll'
'Pole'
'Poker'
'Plenum_'
'Piazza_'
'Pes'
'Peking_'
'Patten_'
'Pat'
'Panorama'
'Palästina_'
'Pale'
'Pak'
'Over'
'Out'
'Opti'
'Oh'
'OC'
'Nummer_'
'Nuklear'
'None_'
'Nielson_'
'Nichtraucherzonen_'
'Next_'
'Netzwerk'
'Net_'
'Nei'
'Natura_'
'NS'
'NI'
'NC'
'München_'
'Muster_'
'Mul'
'Much_'
'Moskau'
'Mona'
'Moment'
'Modernisierung_'
'Modell'
'Mitt'
'Mio_'
'Mini_'
'Milliarde_'
'Millennium_'
'Mill'
'Mic'
'Meinungs'
'Med'
'Mart'
'Marktwirtschaft_'
'Marg'
'Marc'
'Mao_'
'Lü'
'Lärm'
'Lobby'
'Liu_'
'Les_'
'Lehrer_'
'Legal_'
'Lebensmittel_'
'Lap'
'Language_'
'Labor_'
'LU'
'LS_'
'LG'
'Kriminalität_'
'Kremlin_'
'Konzept'
'Kontrollen_'
'Kontext_'
'Kontakt'
'Kont'
'Konkurrenz_'
'Konflikten_'
'Kollegin_'
'Kol'
'Koh'
'Koalition_'
'Klaus_'
'Key_'
'Kern_'
'Kenntnisse_'
'Kart'
'Karriere_'
'Kamera_'
'Kalten_'
'KI'
'Jü'
'Justiz'
'Jur'
'Juan_'
'Jordan_'
'Jahrestag'
'Institut_'
'Industry_'
'Inc_'
'Ill'
'Id'
'IK'
'Hände_'
'Hypotheken'
'Human'
'Hour_'
'Holiday_'
'Hohe_'
'Hir'
'Hind'
'Herzlich'
'Heraus'
'Hau'
'Hart'
'Harmonisierung_'
'Haar'
'HD_'
'Güter'
'Guan'
'Grundsätze_'
'Grundlagen_'
'Gross'
'Gottes_'
'Gold'
'Global'
'Gestatten_'
'Geschäft_'
'Gen'
'Gefängnis_'
'Gebi'
'Gay_'
'Gates_'
'Gat'
'Gast_'
'Gara'
'Ganze_'
'GN'
'Führungsrolle_'
'Fü'
'Freizeit'
'Fou'
'Flu'
'Fire'
'Fett'
'Ferienwohnungen_'
'Ferien'
'Feinde_'
'Farm'
'Family_'
'Fallout_'
'FL'
'FC_'
'Extra'
'Excellent_'
'Everything_'
'Europol_'
'Etwa'
'Et'
'Esp'
'Erwerbs'
'Erne'
'Erk'
'Erinnerung_'
'Erfolge_'
'Entw'
'Engine_'
'Energien_'
'Empf'
'Einschätzung_'
'Einschränkung_'
'Einsatz'
'Eingabe'
'Ehe'
'Economy_'
'Ebola_'
'Eb'
'EP_'
'EB'
'Dos'
'Doppel'
'Dom'
'Dol'
'District_'
'Disp'
'Diplomatie_'
'Deutsch_'
'Deposit_'
'Denken_'
'Defence_'
'Deep_'
'Dau'
'Danach_'
'DL'
'DD'
'Culture_'
'Cru'
'Corb'
'Consensus_'
'Commissioners_'
'Come_'
'Code'
'Coa'
'Clearly_'
'Churchill_'
'Christmas_'
'Children_'
'Chat'
'Chancellor_'
'Castle_'
'Cast'
'Cand'
'CP'
'Böse'
'Börsen'
'Butt'
'Bru'
'Brand'
'Boy'
'Bord_'
'Bolkestein_'
'Blin'
'Binnen'
'Bilanz'
'Big_'
'Bie'
'Bibliothek_'
'Bewegungen_'
'Bew'
'Beu'
'Betracht_'
'Beteiligten_'
'Bet'
'Besorgnis_'
'Besitz_'
'Besch'
'Benjamin_'
'Bene'
'Ben_'
'Begründung_'
'Bef'
'Beendigung_'
'Bee'
'Bedrohungen_'
'Bedien'
'Beamten_'
'Basel_'
'Barón_'
'Bang'
'Back_'
'BRICS_'
'Ay'
'Avenue_'
'Automati'
'Ausnahme'
'Ausgangs'
'Ausgabe_'
'Ausflüge_'
'Augen'
'Aufzug_'
'Assembly_'
'Arti'
'Architekt'
'Arabs_'
'Arabien_'
'Araber_'
'Aqua'
'Anwendungs'
'Anträge_'
'Anschl'
'Ank'
'Alex'
'Aktivität_'
'Aktionäre_'
'Absichten_'
'Abschaffung_'
'Abg'
'Abendessen_'
'AGE'
'AAA_'
'= _'
'900_'
'56_'
'53'
'1986_'
'1950_'
'195'
'181'
'176'
'.&_'
'.&#_'
'. “_'
'- (_'
'+'
'))._'
'% '
'", "_'
' {{_'
' ,_'
' $ _'
'”'
'“-_'
'“ (_'
'א'
'ө'
'ұ'
'с_'
'ры'
'ны'
'нд'
'в_'
'üssel'
'ültig'
'ühren_'
'überst'
'übermäßige'
'überlegen_'
'ösen_'
'ét'
'ér'
'él'
'äußerster_'
'äufe'
'är_'
'änger'
'ändig'
'ändert_'
'ält_'
'ächtig'
'äch'
'án'
'ße'
'Überlegungen_'
'Überg'
'Är'
'Änderungsanträgen_'
'Änderungs'
'züge'
'zzi'
'zwingen_'
'zweiter_'
'zweifel'
'zutiefst_'
'zusammenbr'
'zurückzuführen_'
'zurückf'
'zunehmen_'
'zul'
'zugute_'
'zue'
'zu'
'zte'
'zog_'
'zo_'
'ziert_'
'ziele_'
'zeug'
'zess_'
'ym'
'xp'
'wünscht_'
'wünschenswert_'
'wärt'
'worry_'
'wood'
'wol'
'wohin_'
'wn_'
'withdrawal_'
'wirklichen_'
'wich'
'wherever_'
'whenever_'
'wettbewerbsfähige'
'westliche_'
'wesens_'
'werde'
'wenigsten_'
'wealthy_'
'waves_'
'wann_'
'wai'
'wahrscheinliche'
'wachstum_'
'wachs'
'vorw'
'vorn_'
'vorliegt_'
'vorgeschlagene_'
'volatile_'
'virtuelle'
'virtue_'
'villa_'
'videos_'
'victim_'
'via'
'vi_'
'verwei'
'verwandelt_'
'verwandeln_'
'verwa'
'vertrete'
'versteht_'
'vermittelt_'
'vermieden_'
'verkehrs_'
'verifi'
'verf'
'verdienen_'
'verbieten_'
'verbesserte_'
'verband_'
'verantwort'
'vene'
'variations_'
'varia'
'val'
'utz_'
'ust_'
'usse'
'usage_'
'urf'
'uranium_'
'ura'
'upaya_'
'unterstützten_'
'unterst'
'unterbreitet_'
'unstable_'
'uns'
'unre'
'unn'
'universe_'
'ungssystem'
'ungsa'
'ungen'
'ungeachtet_'
'unemployed_'
'undenen_'
'unclear_'
'uncertain_'
'unce'
'unabhängige_'
'umgekehrt_'
'umgehen_'
'umen_'
'ulat'
'ula_'
'ui'
'uck'
'uchs_'
'ubi'
'tyr'
'typisch_'
'twentieth_'
'tv'
'tut'
'turno'
'tun'
'tta'
'tsunami_'
'tric'
'tragedy_'
'traf_'
'total'
'tot'
'tons_'
'tom'
'tive'
'tig_'
'tien'
'tiefer_'
'threaten_'
'thin'
'thes'
'thermal_'
'there'
'theme_'
'thek'
'theater_'
'tge'
'teria'
'teri'
'terhadap_'
'tere'
'temperature_'
'tells_'
'teiln'
'technologischen_'
'teacher_'
'tatsächlichen_'
'taten_'
'taste'
'tant'
'südlichen_'
'säu'
'symbol'
'sy'
'surprise_'
'supp'
'suggestions_'
'suggestion_'
'sufficiently_'
'succeeded_'
'stück_'
'stärksten_'
'strictly_'
'strengthened_'
'streit'
'stores_'
'stopp'
'stimulat'
'stet_'
'steady_'
'station'
'startet_'
'star'
'sta_'
'ssp'
'sso'
'ssl'
'ssel'
'split_'
'spielte_'
'specialities_'
'songs_'
'solved_'
'solch_'
'soa'
'smo'
'slowly_'
'slow'
'sko'
'sk'
'sische'
'sinken_'
'sin_'
'simpli'
'shipping_'
'shing_'
'sheer_'
'shareholders_'
'sge'
'sey_'
'setz'
'servi'
'sene'
'sema'
'sem'
'sely_'
'sell'
'seemingly_'
'seeing_'
'sed'
'sebagai_'
'seas'
'sda'
'script_'
'schwer'
'schlimmer_'
'schiff_'
'schien_'
'sches_'
'scher'
'sarge'
'sanit'
'saf'
'räume_'
'rus'
'ruins_'
'ruck'
'rub'
'rtet_'
'roof_'
'rom'
'rmo'
'rkte'
'river_'
'riv'
'ring'
'rig_'
'rf_'
'restored_'
'restoration_'
'responsi'
'reso'
'resist_'
'repression_'
'renewed_'
'reli'
'reichsten_'
'rei_'
'referen'
'redu'
'reco'
'reck'
'realisier'
'realise_'
'real'
'rder'
'rchi'
'rbeit'
'rauch'
'rated_'
'rami'
'radical'
'rab'
'quit'
'quie'
'quer'
'quelle_'
'pushing_'
'pus'
'pure_'
'pto'
'pte'
'präg'
'provo'
'propaganda_'
'prohibited_'
'programming_'
'produzieren_'
'proceed_'
'privatis'
'printed_'
'principal_'
'prevail_'
'prev'
'preserv'
'pres'
'preference_'
'preferable_'
'precious_'
'prec'
'popula'
'poorer_'
'politician_'
'pola'
'po_'
'plä'
'plug_'
'plat'
'plane_'
'pla'
'pilot_'
'pig'
'pieces_'
'phy'
'perm'
'perat'
'penalty_'
'pemerintah_'
'pel'
'peacefully_'
'parteien_'
'parlamentarischen_'
'param'
'pane'
'pain'
'oß_'
'overwhelming_'
'overw'
'overview_'
'overs'
'overr'
'outs_'
'ours_'
'oten_'
'ost_'
'osen_'
'osc'
'orthodox'
'ort'
'orn_'
'orge'
'organic_'
'ordnungsgemäß_'
'ordnete'
'ont'
'onder'
'omis'
'om'
'ologie_'
'oll'
'oliti'
'oldest_'
'oil'
'ohn'
'ograph'
'officer_'
'od_'
'ock'
'occurs_'
'obe'
'nze'
'num'
'ntly_'
'nth'
'nso'
'nowhere_'
'normally_'
'nnung_'
'nm'
'niedrigere'
'neuesten_'
'neck'
'ndl'
'ndes_'
'nationalism_'
'national'
'nahe'
'nah'
'nachh'
'nachdrücklich_'
'multimedia_'
'mul'
'mouth_'
'mounting_'
'mos'
'mood_'
'modification_'
'modes_'
'mk'
'mittelalterliche'
'mite'
'mist'
'missbrauch'
'misc'
'men'
'mehrs'
'mega'
'mee'
'medizinische'
'measur'
'mble_'
'maß'
'maybe_'
'maximi'
'massiv_'
'mant'
'manage'
'mana'
'mala'
'mak'
'mailing_'
'mage'
'lös'
'lö'
'lé'
'ländliche_'
'lusi'
'lua'
'lst'
'loyalty_'
'loyal'
'lowering_'
'lou'
'loose_'
'logi'
'log'
'loan_'
'llig'
'literally_'
'linken_'
'ling'
'line'
'limiting_'
'like'
'liefert_'
'lick'
'lich'
'liation_'
'lf'
'leverage_'
'letter_'
'lessly_'
'leis'
'leich'
'legitime'
'lays_'
'laste'
'lass'
'labelling_'
'kurs'
'ktive'
'ktion_'
'ks'
'kritisch'
'kre'
'kr'
'konsum'
'konflikt'
'komplette'
'kommuni'
'kni'
'knapp_'
'kleinere_'
'klar'
'kilo'
'kie'
'kehrt_'
'keb'
'kau'
'kata'
'karten_'
'jä'
'jum'
'jug'
'jo_'
'jet'
'ject'
'jan_'
'jah'
'iv'
'its'
'isten_'
'issen_'
'issa'
'israelische_'
'isolation_'
'ishing_'
'isen_'
'ironi'
'invi'
'intr'
'internasional_'
'interessanten_'
'intense_'
'integrieren_'
'installieren_'
'innocent_'
'inmitten_'
'inis'
'informa'
'infolge_'
'info_'
'inflation'
'infected_'
'iner'
'ineffective_'
'industrielle_'
'indoor_'
'individuellen_'
'individuelle_'
'individuali'
'indig'
'indicates_'
'ind_'
'incorporated_'
'inad'
'imposing_'
'implied_'
'imperative_'
'imper'
'imi'
'illo'
'ill'
'iko'
'ikan_'
'ignoriert_'
'ierter_'
'ierte'
'ide'
'ick'
'ichte'
'hou'
'holes_'
'hob'
'hne'
'hme'
'hly_'
'hle'
'hinnehmen_'
'hierzu_'
'hide_'
'hide'
'hervorgebracht_'
'herum'
'hersteller_'
'herself_'
'henden_'
'hem'
'hegemony_'
'headquarters_'
'harte'
'harsh_'
'halben_'
'hal_'
'günstige_'
'gues'
'grünen_'
'grosse_'
'greift_'
'grand_'
'graf'
'grade_'
'governed_'
'golden_'
'gm'
'global'
'gische'
'ggl'
'getr'
'gespeichert_'
'gespa'
'geräte_'
'geringen_'
'gericht_'
'geregelt_'
'geographical_'
'genießt_'
'geniessen_'
'generi'
'gemeinschaft_'
'geholfen_'
'gehandelt_'
'gehabt_'
'geführten_'
'gefährlichen_'
'geeigneten_'
'gedacht_'
'gas'
'gari'
'fünf'
'führten_'
'füg'
'fü'
'funktion_'
'fung_'
'funded_'
'functional_'
'freu'
'freige'
'freier_'
'fraud_'
'fragt_'
'formuliert_'
'format'
'forderte_'
'fon'
'fließen_'
'flexib'
'fits_'
'finished_'
'finanzieller_'
'fina'
'fin_'
'fil'
'fifth_'
'festzustellen_'
'festen_'
'fertig'
'ferr'
'fei'
'feelings_'
'favourite_'
'fan_'
'falt'
'fait'
'factory_'
'fac'
'extrem_'
'explicitly_'
'expertise_'
'experiment_'
'existed_'
'exce'
'evol'
'evi'
'eut'
'europäisches_'
'eun'
'etzung_'
'etic_'
'ethnischen_'
'ethical_'
'essa'
'esen_'
'erwerben_'
'erweiterten_'
'erste'
'ernsthafte_'
'ernsthaft_'
'ermutigen_'
'erleichtern_'
'erhältlich_'
'erhielten_'
'ergibt_'
'erfreut_'
'erba'
'episode_'
'enve'
'entwurf_'
'enthaltenen_'
'entfernen_'
'entdeckt_'
'entar'
'enm'
'enha'
'engen_'
'enge'
'empty_'
'employers_'
'empire_'
'emb'
'elo'
'eliminating_'
'elect'
'einziges_'
'einschl'
'einnehmen_'
'einladende'
'eing'
'eid'
'eib'
'egung_'
'egt_'
'ege'
'effektiven_'
'edition_'
'ebo'
'ease_'
'dus'
'dry_'
'druck'
'droht_'
'drew_'
'dre'
'downtown_'
'doubts_'
'donor_'
'domain_'
'dn'
'dl'
'disp'
'disorder_'
'disk'
'discharge_'
'disastrous_'
'direct'
'diplomats_'
'dine'
'digitalen_'
'dienst_'
'dian'
'diam'
'diagnose'
'desirable_'
'desi'
'derjenigen_'
'deri'
'depart'
'deny_'
'denselben_'
'denied_'
'demonstrates_'
'demographic_'
'demnächst_'
'deli'
'delegate'
'dein'
'dei_'
'degradation_'
'defeat'
'deemed_'
'decrease_'
'deco'
'declining_'
'decken_'
'debts_'
'debating_'
'dauert_'
'dauerhafte_'
'dangers_'
'dance_'
'damaged_'
'cyclical_'
'cuti'
'curs'
'crowd'
'crack'
'countryside_'
'cook'
'conte'
'constructed_'
'connect'
'confusion_'
'confirmation_'
'configuration_'
'confident_'
'condemned_'
'comprises_'
'complement'
'commande'
'coloni'
'collaborat'
'codi'
'coc'
'classical_'
'clarify_'
'cks_'
'cio_'
'cio'
'chsel'
'choosing_'
'chnungen_'
'chet_'
'cheaper_'
'chart'
'char'
'chafts'
'centrally_'
'cells_'
'celebrate_'
'catalog'
'capitalist_'
'cancelled_'
'campaigns_'
'by'
'buying_'
'bus'
'bung_'
'brutale'
'brutal_'
'bru'
'breiter_'
'breit'
'breakdown_'
'brain_'
'boy'
'bou'
'bold_'
'bod'
'boasts_'
'blo'
'blic'
'bles_'
'blank'
'bitter'
'bisherigen_'
'biodiversity_'
'bill'
'bewegt_'
'betreu'
'betre'
'besuchte_'
'beschä'
'beschreibt_'
'beri'
'berechtigt_'
'berechnet_'
'bene'
'bemerkenswert_'
'beliebte'
'beizutragen_'
'begab_'
'befasst_'
'beeinträchtigt_'
'beeinflusst_'
'bedienen_'
'bedauer'
'bedanken_'
'bearing_'
'beantragen_'
'battery_'
'basically_'
'bankers_'
'bahn_'
'bah'
'bab'
'az_'
'awarded_'
'auto_'
'aute'
'ausste'
'ausgestattete'
'ausgesch'
'ausgerichtet_'
'aufs'
'aufn'
'aufh'
'aufgerufen_'
'audience_'
'attraction_'
'atten'
'attempting_'
'ator'
'atas_'
'ast_'
'assurance_'
'assuming_'
'assumed_'
'assist_'
'assigned_'
'asiatische_'
'ash'
'ase_'
'ars_'
'arrogant_'
'arro'
'arm'
'argumentiert_'
'archa'
'approve_'
'approaches_'
'appreciated_'
'appr'
'anzeigen_'
'anwe'
'anste'
'anscheinend_'
'annimmt_'
'anne'
'angefangen_'
'ane_'
'ando'
'andes_'
'amm'
'amend_'
'ama_'
'allocated_'
'allgemeinem_'
'ality_'
'alismus_'
'aktivieren_'
'airports_'
'ahme'
'ahl'
'ags_'
'aging_'
'agieren_'
'aggregate_'
'agents_'
'age'
'aft'
'ado'
'adequately_'
'addresses_'
'addict'
'activists_'
'ack'
'achievements_'
'achievement_'
'accus'
'accelerate_'
'abzielt_'
'abt'
'abstimmen_'
'abr'
'abhängen_'
'abgew'
'abgestimmt_'
'abf'
'abd'
'abandoned_'
'aa'
'Zuständigkeiten_'
'Zugangs'
'Zoll'
'Zeitalter_'
'Zeichen'
'Yugoslavia_'
'Yan'
'Word_'
'Wo_'
'Wirtschaftskrise_'
'Winter'
'Westens_'
'Wes'
'Weltraum'
'Weltk'
'Weil_'
'Watch_'
'Wart'
'Warcraft_'
'WM'
'Vorz'
'Vorsitzende_'
'Volksgesundheit_'
'Voi'
'Vista_'
'Veröffentlichung_'
'Versionen_'
'Verschl'
'Versammlung_'
'Verkehrsmittel_'
'Verfügbarkeit_'
'Verfahrens'
'Vac'
'Unterzeichnung_'
'Unterstütz'
'Unterhaltungs'
'Unterdrückung_'
'Unsicherheit_'
'Unruhen_'
'Ungarn_'
'Umweltfragen_'
'Umf'
'UT'
'UNG_'
'UB'
'Tö'
'Turn'
'Turk'
'Turb'
'Tschetschenien_'
'Trends_'
'Tourism_'
'Tour'
'Torre'
'Todesfälle_'
'Theorie_'
'TR'
'TC'
'TB_'
'Syrian_'
'Swi'
'Swa'
'Störungen_'
'Studium_'
'Strei'
'Stream'
'Storage_'
'Starfleet_'
'Spur'
'Spieler'
'Speisen_'
'Speci'
'Sowohl_'
'Southern_'
'Sommer'
'Sometimes_'
'Sollten_'
'Soci'
'Smith_'
'Singapore_'
'Sicherheitsa'
'Shin'
'Serbi'
'Select_'
'Sekunde_'
'Scott_'
'Schüler_'
'Schwarz'
'Schulz_'
'Schr'
'Schne'
'Schm'
'Schlu'
'Schlafzimmer_'
'Schlaf'
'Sad'
'SS'
'SER'
'Rü'
'Roosevelt_'
'Ronald_'
'Roh'
'Richter_'
'Rhein'
'Rettung_'
'Respekt_'
'Reservierung_'
'Rent'
'Renaissance_'
'Remo'
'Reduzierung_'
'Reaktionen_'
'Ratspräsident_'
'Railway_'
'Rahmens_'
'Rahmenbedingungen_'
'Raf'
'Rab'
'ROM_'
'RG'
'Quick'
'Question_'
'Queen_'
'Qua'
'Qaeda_'
'Pul'
'Prozesse_'
'Protocol_'
'Proteste_'
'Projekten_'
'Privatisierung_'
'Prague_'
'Pr'
'Port_'
'Por'
'Polit'
'Play'
'Pierre_'
'Pha'
'Pflanzen'
'Pfa'
'Petr'
'Partnern_'
'Paradi'
'Panel_'
'Pack_'
'Pac'
'Paar_'
'PS_'
'Ot'
'Orts'
'Organ'
'Oper'
'Olympic_'
'Oc'
'OU'
'OT'
'OD'
'Nä'
'Nutz'
'Nor'
'Nokia_'
'Nikon_'
'Niederlanden_'
'Niederlande_'
'Nicolas_'
'Nichts'
'New'
'Never_'
'Nehmen_'
'Napoleon_'
'Nachhaltigkeit_'
'NT_'
'NICHT_'
'ND'
'Mö'
'Mugabe_'
'Mozilla_'
'Mountain'
'Motto_'
'Motor'
'Motiv'
'Moral'
'Monte'
'Mond'
'Modus_'
'Mode_'
'Mili'
'Michel'
'Metro'
'Merk'
'Ment'
'Mengen_'
'Medic'
'Media'
'Maßstab_'
'Mazedonien_'
'Marx_'
'Mars'
'Marokko_'
'Marine_'
'Luxembourg_'
'Love'
'Lou'
'Log'
'List_'
'Liebe_'
'Library_'
'Lesung_'
'Less'
'Lese'
'Leicht'
'Lehre_'
'Legi'
'Late'
'Lange'
'Lands'
'Lama_'
'Lam'
'Ky'
'Kreuz'
'Kreditkarte_'
'Krediten_'
'Krebs'
'Kranken'
'Kosten'
'Konvergenz_'
'Kontin'
'Konst'
'Konse'
'Kongo_'
'Kommissionspräsident_'
'Kommissions'
'Kohlen'
'Kohle'
'Klar'
'Kei'
'Katastrophen_'
'Katalog_'
'Karls'
'Kal'
'Jewish_'
'Jesus_'
'Jere'
'Jen'
'Jan_'
'Jacques_'
'Isa'
'Irr'
'Ironi'
'Intervention_'
'Internetzugang_'
'Intergovernmental_'
'Intel_'
'Installer_'
'Innerhalb_'
'Inhalte_'
'Inha'
'Inflationsrate_'
'Immo'
'Images_'
'Ima'
'Identifi'
'Ibiza_'
'ISIS_'
'IE'
'IC_'
'Hü'
'Hy'
'Hungary_'
'Hub'
'Hot'
'Host'
'Hon'
'Hollande_'
'Hilfen_'
'Hi'
'Herbst_'
'Herb'
'Hen'
'Heizung_'
'Hea'
'Hauptver'
'Hat_'
'Hass'
'Hardware_'
'Harbour_'
'Handlungs'
'Haft'
'HT'
'HS'
'Gö'
'Gäste'
'Gun'
'Griff_'
'Graf'
'Gläubiger_'
'Gläubige'
'Glo'
'Gewiss'
'Gewinner_'
'Geräte_'
'Gerichten_'
'Gepäckraum_'
'Georgien_'
'Geo'
'Gender_'
'Gegenstände_'
'Gefolge_'
'Garantien_'
'Galileo_'
'Fünf'
'Frie'
'Freund_'
'Freund'
'Freiheits'
'Frauen'
'Franzosen_'
'Francisco_'
'Fox_'
'Forscher_'
'Flugzeug'
'Flor'
'Fleisch_'
'Five_'
'Finance_'
'File_'
'Festplatte_'
'Fern'
'Fehler'
'Feed'
'Fas'
'Farbe_'
'Fang'
'Fam'
'Fakten_'
'Fahrrad'
'Exporte_'
'Explorer_'
'Ever'
'Euros_'
'Erz'
'Erst_'
'Erst'
'Erreichung_'
'Ergebnissen_'
'Entschlossenheit_'
'Englisch_'
'Energiequellen_'
'Energieeffizienz_'
'Enc'
'Emi'
'Elevator_'
'Einw'
'Einst'
'Eines_'
'Eigentums'
'Effekte_'
'Eco'
'EU'
'ECH'
'Dusche_'
'Dubai_'
'Dro'
'Drittländern_'
'Drei_'
'Donnerstag_'
'Domin'
'Display_'
'Director_'
'Dir'
'Dingen_'
'Dilemma_'
'Diesel'
'Diagnose'
'Desktop_'
'Den'
'Dem'
'Defizit'
'Darstellung_'
'Danish_'
'DAT'
'Custom'
'Crespo_'
'Create_'
'Count'
'Corporation_'
'Consider_'
'Congo_'
'Computers'
'Computer'
'Cle'
'Christine_'
'Chin'
'Child_'
'Chicago_'
'Cher'
'Chen'
'Chaos_'
'Change_'
'Chancengleichheit_'
'Cent'
'Celsius_'
'Cardassian'
'Cannes_'
'Cala_'
'Cai'
'CU'
'CR'
'COM_'
'CC_'
'CB'
'Bü'
'Bull'
'Brust'
'Brief_'
'Brennstoffe_'
'Brennstoff'
'Branche_'
'Brad'
'Botschaften_'
'Borg_'
'Boo'
'Blue'
'Bilanz_'
'Bil'
'Bier'
'Bezahlung_'
'Betroffenen_'
'Betreiber'
'Bestimm'
'Beste'
'Beschäftigten_'
'Beschr'
'Bern'
'Bericht'
'Bereits_'
'Beobachtung'
'Behörde_'
'Balkon_'
'Bai'
'Bag'
'BM'
'Ayatollah_'
'Austr'
'Austausch_'
'Auslands'
'Ausf'
'Ausbruch_'
'Ausbeutung_'
'Aufklärung_'
'Aufhebung_'
'Aufenthalts'
'Att'
'Atomwaffen_'
'Ash'
'Arzneimittel'
'Area_'
'Arbeitsplätzen_'
'Arbeitsmarkt'
'Arbeitskräften_'
'Arabischen_'
'Arabi'
'Ara'
'Appe'
'Apo'
'Ansehen_'
'Anschläge_'
'Annan_'
'Anna'
'Anh'
'Anfragen_'
'Anf'
'Andre'
'Anbindung_'
'Among_'
'Ameri'
'Alpen_'
'Alp'
'Allow_'
'Allah_'
'Albert_'
'Albani'
'Aktions'
'Adria'
'Achtung_'
'Abz'
'Abu_'
'Abteilung_'
'About_'
'Able'
'Abk'
'Abend'
'Abb'
'AVI_'
'AT_'
'AM_'
'AF'
'ACP_'
'?”_'
'== _'
'="_'
';&#_'
': '_'
'99_'
'93_'
'77_'
'76_'
'74'
'68'
'65'
'64'
'53_'
'51'
'47'
'38'
'350_'
'200'
'1st_'
'1980er_'
'1956_'
'1930_'
'150'
'002'
'.  _'
'. )'
'. "_'
', '_'
'( _'
'!!_'
' – '
' »_'
' «_'
' - '
' * _'
' %._'
' %'
'€ _'
'€'
'…'
'– '
'ә'
'ғ'
'ір'
'э'
'ты'
'ки'
'жа'
'ен'
'ге'
'г'
'ал'
'а_'
'α_'
'α'
'ğ'
'č'
'üste'
'ündig'
'ückte'
'ücher_'
'üblichen_'
'überz'
'überwachen_'
'überleben_'
'überge'
'überd'
'ø'
'ötig'
'ökonomische_'
'ín'
'éta'
'ça_'
'å_'
'å'
'äßig'
'äst'
'ärkte'
'änglich'
'änd'
'ällig'
'ähr'
'ähnlichen_'
'äh'
'äft'
'äd'
'Äußerungen_'
'Ägypte'
'®'
'« _'
'«'
'}} '
'zügig'
'zz'
'zykl'
'zweit'
'zusch'
'zurzeit_'
'zun'
'zukünftige_'
'zuh'
'zt_'
'zl'
'zip_'
'zier'
'zielen_'
'zia'
'zh'
'zerstör'
'zers'
'zeichne'
'zei'
'zehn'
'zan'
'ypt'
'yl_'
'yan'
'yacht'
'wusste'
'wur'
'worte'
'word'
'woch'
'wn'
'with'
'wit'
'wisdom_'
'wirk'
'wines_'
'wheel_'
'wettbewerbs'
'wett'
'wes'
'wertung_'
'wellness_'
'wellbeing_'
'weißen_'
'weiterzu'
'weitem_'
'wede'
'weak'
'watching_'
'watch'
'wasn_'
'warf'
'wahre_'
'wahl'
'wachsende'
'vr'
'vorschlag_'
'vorschl'
'vornehmen_'
'vorgeschrieben'
'vorg'
'voranzutreiben_'
'voneinander_'
'volunteers_'
'vol'
'vity_'
'vin_'
'veto_'
'veränderte'
'verweisen_'
'verständlich_'
'verstr'
'verschle'
'verschieden_'
'verschieben_'
'verschie'
'vermögen_'
'vermi'
'verlängern_'
'verlust'
'verletz'
'verlager'
'verkehrs'
'verha'
'verglichen_'
'vergleich'
'vergi'
'verfassungs'
'vereint_'
'verdi'
'verbindlich_'
'verbesserten_'
'veran'
'vention'
'uve'
'uted_'
'usel'
'uro'
'url'
'uring_'
'urgency_'
'ups_'
'upcoming_'
'uous_'
'unzählige_'
'unweit_'
'unwahrscheinlich_'
'unv'
'untersucht_'
'unterm'
'unsp'
'unpro'
'unmittelbaren_'
'unmi'
'unknown_'
'unklar_'
'univers'
'unhe'
'ungsr'
'ungsbe'
'ungan_'
'unfair_'
'unen'
'uneingeschränkt_'
'understands_'
'underscore'
'unbr'
'unanimously_'
'ume'
'ull'
'uj'
'ugh'
'ud_'
'uber'
'ual'
'ua'
'tür'
'té'
'typ'
'tus'
'tungen_'
'tums'
'tum'
'tub'
'ttel'
'tst'
'tron'
'tremendous_'
'treatments_'
'traten_'
'transmission_'
'translate_'
'transit'
'transformed_'
'transc'
'transatlantischen_'
'transactions_'
'transaction_'
'trains_'
'tragische'
'toxi'
'tou'
'tory_'
'toren_'
'tolle'
'todo'
'tod'
'tn'
'tischer_'
'tire'
'tir'
'tim'
'tili'
'tiefe_'
'tie_'
'tib'
'throw'
'thor'
'tf'
'teuer'
'terr'
'terminal_'
'terk'
'tens'
'tenden'
'tema'
'technische'
'technik_'
'techni'
'tc'
'tbar'
'tasty_'
'tankers_'
'tand'
'talent_'
'tak'
'tain'
'systematically_'
'symptom'
'symbolic_'
'sym'
'sy_'
'sv'
'suspension_'
'surprisingly_'
'surpluses_'
'surg'
'supplement'
'suff'
'sudah_'
'such'
'subway_'
'substan'
'stuff_'
'strikte'
'strikes_'
'stretch'
'streng_'
'straight_'
'straf'
'stoffe_'
'stieg_'
'stick_'
'stell'
'steam_'
'steadily_'
'stea'
'statt'
'statisti'
'stamm'
'stakes_'
'stabile_'
'sses_'
'spro'
'spre'
'sprachliche'
'sprachen_'
'spezi'
'spell'
'speed'
'speeches_'
'spectacular_'
'specify_'
'sow'
'sound'
'soul_'
'sorgfältige'
'sorgfältig_'
'sophisticated_'
'sogenannten_'
'sofa_'
'smart_'
'sman'
'sle'
'sland'
'sinnvolle'
'simi'
'sim'
'sili'
'signing_'
'signature_'
'sierungs'
'sierte'
'sieg'
'sic'
'shut_'
'shortcomings_'
'ship'
'sher'
'shee'
'sg'
'sfo'
'sf'
'sexuelle_'
'sevent'
'settled_'
'seh'
'secondly_'
'seba'
'scrutin'
'screening_'
'scrap'
'schwächere'
'schwäch'
'schwedischen_'
'scholar'
'schließt_'
'schlechte_'
'schein'
'schauen_'
'schafts'
'schafft_'
'satisfied_'
'sak'
'safeguard_'
'rückg'
'rü'
'räge_'
'rui'
'ruch_'
'rter'
'ros_'
'roo'
'romantic_'
'roman'
'roa'
'rnähr'
'rnen_'
'rna'
'rm_'
'rke'
'rka'
'ritten_'
'rist'
'risiko_'
'rik_'
'rige_'
'rieren_'
'richtung'
'richtet_'
'rhe'
'reward_'
'revive'
'revers'
'reveal_'
'returning_'
'retro'
'retr'
'responded_'
'residents_'
'reside'
'reproduc'
'repr'
'repli'
'repa'
'renov'
'reno'
'renminbi_'
'removing_'
'remind'
'remark'
'relocat'
'reliability_'
'reisen_'
'reinforce_'
'reifen_'
'reif'
'reiche_'
'register_'
'regierung_'
'regen'
'regelungen_'
'regelmäßig_'
'refusal_'
'redistribution_'
'recon'
'recht'
'rechnen_'
'receives_'
'realistische'
'realised_'
'reader_'
'rator'
'ratifiziert_'
'ratification_'
'rapide_'
'ranks_'
'rank'
'rangi'
'rall'
'rahmen'
'ract'
'quoten_'
'quisit'
'quir'
'quest'
'quanti'
'qualifizierte_'
'qualifications_'
'pushed_'
'pup'
'pti'
'prüf'
'prozesses_'
'prove'
'protektionistische'
'prosperous_'
'proof_'
'projekte_'
'projekt_'
'programmen_'
'professionelle'
'prob'
'prize_'
'privilege_'
'printing_'
'preventive_'
'prevail'
'prestigious_'
'preserved_'
'presentation_'
'prescri'
'premature_'
'pragmatic_'
'power'
'potenziellen_'
'poss'
'posi'
'poses_'
'pollut'
'pole'
'polar_'
'plural'
'pill'
'pier'
'philosophy_'
'phas'
'ph_'
'pflege'
'pfl'
'pfel'
'pfe_'
'petit'
'pes_'
'persönliche'
'persuade_'
'persone'
'persist'
'perpet'
'permi'
'periode_'
'pere'
'pensions_'
'penda'
'pemba'
'pei'
'ped'
'peacekeeping_'
'pazi'
'patient_'
'passes_'
'partitions_'
'parlamentarische_'
'parity_'
'paren'
'papers_'
'panel_'
'pana'
'paket_'
'painting_'
'own'
'owe_'
'oversight_'
'overe'
'outs'
'outl'
'oti'
'otel_'
'oste'
'osition'
'orium_'
'oran'
'operates_'
'opens_'
'openly_'
'opa'
'ood_'
'onym'
'ont_'
'onal_'
'ome_'
'ological_'
'ologi'
'ofi'
'offensichtliche'
'odie'
'ock_'
'och_'
'occupation'
'oca'
'obst'
'observation_'
'obli'
'ober'
'nzi'
'nza'
'nutrition_'
'ntw'
'nous_'
'nost'
'nos'
'nomin'
'noi'
'nnt_'
'nner'
'nity_'
'nisses_'
'nischen_'
'nische_'
'nio'
'nik_'
'nightlife_'
'niedrige_'
'ngst'
'ngn'
'nger_'
'ngel'
'nga'
'nett'
'ness'
'nesian'
'ners_'
'neo_'
'neglig'
'neglect_'
'negativ_'
'necessity_'
'nec'
'ndete'
'nberg_'
'naval_'
'nah_'
'nada_'
'mündlichen_'
'männ'
'mutige'
'musik_'
'mung'
'multilateralen_'
'muda'
'mt'
'mpin'
'mpf'
'mp_'
'movies_'
'mov'
'mounted_'
'mortgage_'
'moon_'
'monument'
'moment'
'modules_'
'moderni'
'modern'
'mixture_'
'mitteln_'
'mitglieder_'
'mitge'
'missi'
'mism'
'mischen_'
'mir'
'mining_'
'minimi'
'mina'
'militant'
'meta'
'messe'
'mesis'
'ment'
'mengu'
'mengak'
'menga'
'membu'
'med'
'measurement_'
'md'
'matche'
'massage_'
'maschine_'
'marine_'
'marginal_'
'mapp'
'mali'
'makroökonomische'
'mai'
'mah'
'magne'
'magazine_'
'lüge'
'lü'
'lve'
'lv'
'lue'
'luc'
'lu_'
'ltung_'
'loses_'
'logo_'
'loc'
'lobb'
'llt_'
'lli'
'llers_'
'ller'
'lize'
'liza'
'litik'
'literar'
'listening_'
'liste'
'list'
'linge'
'liederung_'
'liebe_'
'lichsten_'
'licherweise_'
'license_'
'lib'
'leute_'
'letting_'
'lending_'
'leitung_'
'leitete_'
'leitet_'
'leichter'
'legislat'
'leere'
'lect'
'latein'
'last'
'lant'
'künstlich'
'kta'
'kris'
'kopieren_'
'kontrollierte'
'kontrolle_'
'kontro'
'konkurr'
'konkret_'
'komplette_'
'kommunistische_'
'komfortablen_'
'komfortable_'
'km²_'
'km'
'klassi'
'kirche_'
'kenne_'
'kebijakan_'
'kampf'
'kam'
'kali'
'kale'
'kai'
'jüngere'
'jährliche_'
'judgment_'
'judge_'
'judge'
'jegliche'
'jed'
'jas'
'izing_'
'itution_'
'itte'
'istisch'
'irt'
'irgendwann_'
'iranischen_'
'ira_'
'ip_'
'iot'
'ione'
'invade'
'inu'
'interpreti'
'interprete'
'interim_'
'intellektuelle'
'integrierten_'
'integrierte_'
'integral'
'installer_'
'insta'
'insch'
'innovat'
'inner_'
'inj'
'inist'
'inhalt'
'inglich'
'ingen'
'infringement_'
'influential_'
'induce'
'indirekt_'
'inder'
'incredibly_'
'immer'
'ily_'
'iki'
'ihrerseits_'
'igt'
'ignorieren_'
'iger'
'ielen_'
'iehen_'
'iegel'
'idor'
'identical_'
'idealer_'
'icul'
'ichtungs'
'ichtung_'
'ichtig'
'icht'
'ices_'
'ican'
'ias_'
'höhere'
'hôtel_'
'hy_'
'hunting_'
'hung'
'hunderte'
'hrung_'
'hren'
'hre'
'hosted_'
'hospitality_'
'hospital_'
'hone'
'holen_'
'hol_'
'hochwertige_'
'hne_'
'hm_'
'hle_'
'historisch_'
'his'
'hinzugefügt_'
'hint'
'hinder'
'hike'
'hic'
'heutzutage_'
'heri'
'here'
'herbei'
'herb'
'herausragende'
'hende_'
'height_'
'hearts_'
'health'
'heading_'
'haushalt'
'has'
'harg'
'hard'
'handled_'
'handed_'
'ham'
'hall'
'halb'
'hafte_'
'had'
'habt_'
'habit'
'gutem_'
'gua'
'gten_'
'größter_'
'greifende'
'grasp_'
'graph_'
'good'
'gni'
'gna'
'gn_'
'glich'
'gleicher_'
'git'
'gingen_'
'gil'
'gge'
'gewünschten_'
'gespe'
'geru'
'gers_'
'gerei'
'gerechter'
'gerechten_'
'geprägt_'
'gent'
'genauer_'
'gena'
'gemäßigte'
'gelo'
'gelangt_'
'geko'
'geklärt_'
'geist'
'geblieben_'
'gebeten_'
'geber'
'gation_'
'gabe_'
'fäll'
'fähig_'
'fut'
'fus'
'ften_'
'früh_'
'friedliche_'
'freut_'
'freundlicher_'
'freez'
'frau'
'fossile'
'forsch'
'formula_'
'formats_'
'formally_'
'forever_'
'fores'
'foods_'
'fond'
'fl'
'finnische'
'findings_'
'fiel_'
'fi_'
'fern_'
'fel_'
'feind'
'fehler'
'feels_'
'federa'
'favour'
'fassen_'
'fascinating_'
'fantas'
'famili'
'fals'
'fairen_'
'faire_'
'fahrzeuge_'
'facility_'
'eßen_'
'extremism_'
'externen_'
'externe_'
'express'
'explicit_'
'experimental_'
'exhibition_'
'executi'
'executed_'
'excluded_'
'exclude'
'ewi'
'ewe'
'evo'
'eventuelle'
'euren_'
'etzt_'
'este_'
'este'
'estan'
'ession_'
'eso'
'esc'
'esan'
'erz'
'erweitert_'
'erwe'
'ervi'
'ertrag'
'ert'
'erstreckt_'
'erstklassige'
'erson'
'ersi'
'erschienen'
'errichtete'
'errichten_'
'erra'
'erp'
'ernste_'
'erneuer'
'erleb'
'erla'
'erin'
'erheben_'
'erhe'
'erfü'
'erati'
'erarbeiten_'
'entl'
'ensu'
'enjoys_'
'ened_'
'enco'
'enburg_'
'emphasis'
'emm'
'elte'
'els'
'ellt_'
'elle'
'elit'
'eliminated_'
'elf_'
'ekt'
'einsch'
'einr'
'einmalige_'
'einl'
'einiges_'
'einig'
'eingereicht_'
'eingeg'
'eingeb'
'einf'
'eind'
'einbr'
'einbezogen_'
'eigentlichen_'
'eichne'
'effektiver_'
'edu'
'eden_'
'ecological_'
'echn'
'eche'
'ebu'
'eat'
'earn'
'durchd'
'dunkle'
'duk'
'duc'
'dscha'
'drittens_'
'draw'
'drag_'
'donat'
'dominate_'
'dokument'
'dnung_'
'dlich'
'dle_'
'div'
'disturb'
'distribut'
'distr'
'diss'
'disrupti'
'disi'
'discretion_'
'dische'
'disappear'
'dip'
'digitale_'
'dig_'
'differently_'
'dich_'
'dge_'
'dge'
'devastating_'
'deutet_'
'dete'
'det_'
'destabili'
'desp'
'design'
'derselben_'
'derive_'
'dera'
'deposit_'
'deport'
'deployment_'
'deployed_'
'denjenigen_'
'demonstrators_'
'delle_'
'delivering_'
'delicate_'
'defending_'
'defect'
'declined_'
'declare_'
'declar'
'daten'
'dac'
'cus'
'cultures_'
'cts_'
'ctions_'
'crystal'
'cry_'
'courage_'
'cos'
'coordinat'
'convey'
'convert'
'conv'
'controller_'
'contaminated_'
'consistently_'
'cong'
'conf_'
'comput'
'compulsory_'
'complaints_'
'competent_'
'competences_'
'compatibility_'
'command'
'column'
'colo'
'collected_'
'clothing_'
'clim'
'clicking_'
'clarification_'
'cks'
'citizenship_'
'cil'
'cigarette'
'cien'
'cial_'
'chä'
'chronische'
'chro'
'christliche'
'chlich'
'chk'
'chir'
'chemische_'
'chee'
'chairman_'
'chaften_'
'ces'
'cent_'
'cement_'
'cea'
'carrier_'
'care'
'cap'
'cans_'
'cana'
'camp'
'cali'
'bürgerliche'
'burned_'
'buch'
'brother_'
'broker'
'brilliant_'
'breast_'
'bran'
'brachten_'
'boy_'
'boom'
'booked_'
'blow_'
'blis'
'blick_'
'bless'
'blame_'
'bir'
'bili'
'bil'
'bike_'
'bien_'
'bic'
'bewährte'
'beweist_'
'bewaffneten_'
'bevorzugte'
'betragen_'
'betrachte_'
'bet_'
'beständig'
'bestre'
'beschrieben_'
'besagt_'
'berl'
'berichtet_'
'bereitgestellt_'
'bereich'
'beneficial_'
'benefi'
'benachrichtigt_'
'bemerkt_'
'beliebtes'
'bekämpfung_'
'bekannter'
'behörden_'
'begleiten_'
'befürwortet_'
'befreien_'
'befehl'
'bedingungen_'
'bedingten_'
'bede'
'beda'
'beck_'
'beberapa_'
'bbi'
'baut_'
'bathing_'
'bath'
'basierte_'
'banyak_'
'bankr'
'bahn'
'bahan_'
'automatic_'
'authorise'
'auszusch'
'auswärtige_'
'ausschl'
'ausreichende_'
'ausreichen_'
'ausgi'
'ausgel'
'aufweisen_'
'aufste'
'aufrecht_'
'auffordern_'
'attribute'
'attending_'
'attacking_'
'attached_'
'attach'
'ats'
'atis'
'ate'
'aste'
'assessments_'
'arts_'
'armo'
'arin'
'aries_'
'aren_'
'ards_'
'approval_'
'approaching_'
'appointment_'
'appe'
'ape'
'anzus'
'anzug'
'anz'
'anxiety_'
'anticipated_'
'anschließend_'
'anschl'
'ansa'
'anr'
'annually_'
'annten_'
'anni'
'anle'
'anische_'
'anis'
'ani_'
'angs_'
'angka'
'anger'
'angenehme'
'angeh'
'angegriffen_'
'anfangen_'
'aner'
'andern'
'ances_'
'analyze'
'analyst'
'amtierende'
'amme'
'ame_'
'ame'
'ambitions_'
'amazing_'
'alter'
'albeit_'
'alarm'
'ala_'
'aktionen_'
'ais'
'airlines_'
'ahren_'
'ahl_'
'agte'
'ager'
'affi'
'advocate_'
'advice_'
'adidas_'
'adhere'
'aden_'
'adapti'
'adapted_'
'adapt'
'acy_'
'actively_'
'act'
'acr'
'acquired_'
'acknowledg'
'achts'
'accura'
'accountable_'
'accountability_'
'accord_'
'accomplished_'
'accidents_'
'accident_'
'academic_'
'ac'
'abzulehnen_'
'absolute'
'ablehnen_'
'abh'
'abges'
'abgeben_'
'abba'
'aat'
']] | _'
'Zypern_'
'Zwischenzeit_'
'Zwei_'
'Zuw'
'Zustellbetten_'
'Zusammenfassung_'
'Zusagen_'
'Zugriff'
'Zuge'
'Zimmerbeschreibung_'
'Zertifikat'
'Zentrala'
'Zeitungen_'
'Zeitplan_'
'Zauber'
'Zahlreiche_'
'Young_'
'Xi_'
'Xi'
'XML_'
'Wur'
'Wohnungs'
'Wissenschaftlern_'
'Wirtschaftss'
'Wirtschaftsr'
'Wirtschaftsm'
'Wirtschaftsa'
'Wirtschaftlich'
'Wilhelm_'
'Wiederg'
'Wichtig_'
'Who'
'Wett'
'Werte'
'Wellness'
'Well_'
'Weiteren_'
'Wechselkurs'
'Wachstumspakt'
'Voyager_'
'Votum_'
'Vorsorge'
'Vors'
'Vorgänger'
'Vordergrund_'
'Vorbereitungen_'
'Visit'
'Visionen_'
'Vin'
'Village_'
'Vil'
'Vid'
'Verwe'
'Vertretung_'
'Versicherungen_'
'Versi'
'Versand'
'Verr'
'Verordnungen_'
'Vern'
'Verkaufs'
'Veri'
'Verheugen_'
'Vergnügen_'
'Vereinigung_'
'Verbrauch_'
'Verantwortungs'
'Ven'
'VP_'
'VA'
'Ut'
'Untersuchungs'
'Unterschied'
'Unterricht'
'Unsere'
'Unm'
'Unlike_'
'Ungl'
'Una'
'Umstrukturierung_'
'Ub'
'UNESCO_'
'Tür_'
'Trä'
'Tower_'
'Touristen_'
'Tourismus'
'Tos'
'Top_'
'Tools_'
'Tom'
'Together_'
'Tisch_'
'Tickets_'
'Throughout_'
'Through_'
'Thro'
'Thi'
'Theater_'
'Terror_'
'Tempora'
'Tel_'
'Tech_'
'Tea'
'Taxi'
'Taten_'
'Tarif'
'Tap'
'Tao'
'Tak'
'Tag'
'Tabelle_'
'TU'
'Sü'
'Szenario_'
'Szen'
'Swoboda_'
'Sun_'
'Suiten_'
'Subject_'
'Stü'
'Sturm_'
'Stri'
'Streben_'
'Stiftung_'
'Steuerung_'
'Steuersystem'
'Sternen'
'Staatsverschuldung_'
'Staatsschulden_'
'Staatss'
'Spiels'
'Spiegel'
'Spezie'
'Spani'
'Spaltung_'
'Sp'
'Source_'
'Solid'
'Solche_'
'Solarium_'
'Solar'
'Solana_'
'Sm'
'Slow'
'Six_'
'Sisko_'
'Single_'
'Singapur_'
'Similar_'
'Signale_'
'Shops_'
'Server'
'Series_'
'Sensor'
'Sende'
'Senate_'
'Senat'
'Semi'
'Sek'
'Scien'
'Schöne'
'Schweizer_'
'Schwan'
'Schre'
'Schluss'
'Schic'
'Schach'
'Scha'
'Say'
'Saturday_'
'SanDisk_'
'Sam'
'Salzburg_'
'STO'
'STE'
'ST'
'SG'
'Rüstungs'
'Rule_'
'Rohstoff'
'Rock'
'Robert'
'River'
'Rica_'
'Rezept'
'Res'
'Republikaner_'
'Repo'
'Rental_'
'Renn'
'Rem'
'Rekord'
'Reinigung_'
'Reichen_'
'Registrierung_'
'Regions_'
'Ree'
'Reduc'
'Rede'
'Recent_'
'Rea'
'RS_'
'RI_'
'RC_'
'Quo'
'Quest'
'QE_'
'Putins_'
'Publik'
'Prävention_'
'Präsidenten'
'Präsenz_'
'Program_'
'Process_'
'Prob'
'Political_'
'Poi'
'Plu'
'Platz'
'Picard_'
'Photo'
'Philip'
'Phasen_'
'Pflege_'
'Pet'
'Peru_'
'Personen'
'Perl'
'Pent'
'Pel'
'Peer_'
'Patt'
'Patent'
'Patch'
'Partners'
'Parks_'
'Parag'
'Palacio_'
'PXI_'
'PM'
'PH'
'PDF_'
'Ozean'
'Osteuropa_'
'Oslo_'
'Original_'
'Ordner_'
'Ora'
'Operation_'
'Online'
'Ombudsman_'
'Olympus_'
'Og'
'Offizier'
'Obamas_'
'OG'
'ODER_'
'Nue'
'Nova'
'Normal'
'Nob'
'Nik'
'Niger'
'Nichts_'
'Neue_'
'Neigung'
'Nap'
'Nan'
'Nahrungsmittel_'
'Nachrichten'
'Nachfolger_'
'NP'
'NH'
'NF'
'Mü'
'Möglich'
'Männern_'
'Mus'
'Mund'
'Multi_'
'Motion_'
'Mord_'
'Monats_'
'Moldova_'
'Moham'
'Modul_'
'Mode'
'Mod'
'Mittag'
'Mitgliedsländer_'
'Mitentscheidung'
'Mille'
'Michel_'
'Mexican_'
'Messen'
'Messe_'
'Mes'
'Mem'
'Meinungsumfragen_'
'Medi'
'Mea'
'McC'
'Maus'
'Materialien_'
'Marken'
'Marco_'
'Map'
'Manu'
'Manche_'
'Male'
'Make_'
'Maha'
'MH'
'ME_'
'MED'
'Lösungs'
'Länge_'
'Län'
'Luxus_'
'Luxemburg_'
'Lula_'
'Lui'
'Luftverschmutzung_'
'Luftraum'
'Low_'
'Louis_'
'Look_'
'Logo_'
'Loc'
'Lobby_'
'Lis'
'Linke_'
'Lif'
'Leuten_'
'Leone_'
'Lektion_'
'Leiden'
'Leid_'
'Leader'
'Lauf'
'Last'
'Lah'
'LT'
'LD'
'LA_'
'Körper'
'König'
'Kurd'
'Kroatien_'
'Kreis'
'Kre'
'Kontinents_'
'Konsumenten_'
'Konflikts_'
'Konferenz'
'Kom'
'Kolonial'
'Kollege_'
'Koll'
'Know_'
'Know'
'Klin'
'Keynesian_'
'Kel'
'Kein_'
'Kau'
'Kath'
'Kapitalismus_'
'Kanal'
'Kam'
'Kaffee_'
'Kaffee'
'Kabel_'
'KON'
'Juli'
'Jugendlichen_'
'Jud'
'Jose'
'Jews_'
'Jas'
'Jakob'
'Jag'
'Ist'
'Islamist_'
'Ir'
'Inzwischen_'
'Investment_'
'Intera'
'Instanz_'
'Instan'
'Installations'
'Inland'
'Inflations'
'Industriep'
'Impl'
'Immunität_'
'Imagin'
'Illusion'
'Il'
'IV_'
'IN_'
'ICEcat_'
'IA_'
'Höhen'
'Häufig'
'Häfen_'
'Hyper'
'Hyatt_'
'Hop'
'Hollywood_'
'Holland_'
'Hohen_'
'Hof'
'Hisbollah_'
'Hinweise_'
'Hinter'
'Hindernisse_'
'Hindernis_'
'Hil'
'High'
'Herz_'
'Herrsch'
'Her_'
'Heinrich_'
'Heb'
'Hard'
'Hannover_'
'HI_'
'Gute_'
'Guinea_'
'Guatemala_'
'Grupp'
'Greens_'
'Greeks_'
'Glücklicherweise_'
'Gipfels_'
'Gibt_'
'Gewährleistung_'
'Gewinn_'
'Gewalt'
'Gesetzes'
'Genf'
'Generalsekretär_'
'Genau_'
'Gemeinw'
'Gemeinschaftsp'
'Gemein'
'Geiste'
'Gegenwärtig_'
'Gegenwart_'
'Gee'
'Gaz'
'Gaulle_'
'Gall'
'G20_'
'Förder'
'Föderation_'
'Fußball'
'Funktionsweise_'
'Fundamental_'
'Frühling_'
'Freundschaft_'
'Freitag_'
'Freihandelsabkommen_'
'Freihandels'
'Franklin_'
'Format'
'Folgendes_'
'Folge'
'Flüchtlings'
'Flug_'
'Flexibilität_'
'Fis'
'Find'
'Filter'
'Fee'
'Fau'
'Fass'
'Fahrer_'
'Face'
'Fabriken_'
'FM'
'FA_'
'Explosi'
'Experience_'
'Evo'
'Evans_'
'Eva'
'Eu'
'Ethi'
'Estonia_'
'Esc'
'Erwärmung_'
'Erste'
'Erscheinung_'
'Err'
'Ern'
'Erkenntnis_'
'Erfind'
'Erdgas'
'Erbe_'
'Entwicklungsa'
'Entr'
'Entlastung_'
'Ens'
'End_'
'Empfänger_'
'Emp'
'Elf'
'Electronic'
'Einzelnen_'
'Einladung_'
'Einigkeit_'
'Eing'
'Eigentümer'
'Ehre_'
'Ehr'
'Ecuador_'
'Ebenen_'
'EWG_'
'ENT_'
'Dé'
'Durch'
'Dur'
'Dre'
'Dona'
'Don'
'Disabled_'
'Differenzen_'
'Differenz_'
'Diesen_'
'Dienste'
'Diag'
'Dest'
'Denk'
'Demonstranten_'
'Demokrati'
'Deflation_'
'Defense_'
'Deck'
'Davi'
'Darau'
'DP'
'Cup_'
'Crew_'
'Countries_'
'Cooperation_'
'Converter_'
'Continental_'
'Cont'
'Consult'
'Conce'
'Compa'
'Come'
'Colon'
'Citizens_'
'Cin'
'Christ'
'Chr'
'Chemi'
'Cer'
'Cau'
'Carolin'
'Carlo_'
'Car_'
'CEO_'
'CDs_'
'Bühne_'
'Bushs_'
'Bulgarian_'
'Buchung_'
'Brut'
'Browser_'
'Brit'
'Boutique_'
'Bot'
'Boh'
'Blockade_'
'Ble'
'Binnenmarktes_'
'Bin'
'Beweg'
'Betrug_'
'Besuche'
'Bestätigung_'
'Besteuerung_'
'Beschwerden_'
'Besatzung_'
'Bernanke_'
'Berliner_'
'Benach'
'Belo'
'Bekanntlich_'
'Befürchtungen_'
'Beförderung_'
'Bed'
'Beamte_'
'Basic_'
'Bara'
'Bahrain_'
'BL'
'Azer'
'Autor'
'Australien_'
'Ausgaben'
'Ausb'
'Augenmerk_'
'Auftr'
'Aufs'
'Aufb'
'Ate'
'Assa'
'Asiens_'
'Asi'
'Archer_'
'Arbeitss'
'Anstatt_'
'Anruf'
'Angola_'
'Ander'
'Amts'
'Amm'
'American'
'Alternativen_'
'Alpe'
'Alge'
'Akzeptanz_'
'Aktionsplan_'
'Akte'
'Airways_'
'Addi'
'Acht_'
'Account'
'Abst'
'Abs'
'Abgesehen_'
'Abfall'
'Abenteuer_'
'Abbau_'
'AG'
'A6_'
'=='
'87_'
'83_'
'76'
'69_'
'66'
'58_'
'44'
'41'
'360_'
'215'
'1988_'
'1984_'
'198'
'1978_'
'1975_'
'1970er_'
'1940_'
'1920'
'1900_'
'178'
'--'
') ._'
'&#_'
'%_'
'") _'
' “ _'
' » _'
' ``_'
' = [[_'
' --> _'
'”)'
'ү'
'ын'
'ыл'
'ті'
'ти'
'са'
'рі'
'ро'
'ре'
'ос'
'ле'
'ке'
'ес'
'да_'
'бол'
'ба'
'ай'
'Б'
'ι'
'üte'
'üllung'
'ühr'
'üge'
'ückt_'
'üchte_'
'üch'
'übt_'
'überzeugende'
'überwacht_'
'überschreiten_'
'überh'
'überb'
'öss'
'ören_'
'öm'
'öge'
'öf'
'ór'
'ña'
'ê'
'éri'
'äuft_'
'ätzung_'
'ätte'
'änk'
'ändische'
'äm'
'älteste_'
'älter'
'äisch'
'ähl'
'äg'
'ächte'
'ä_'
'â'
'ár'
'Übersetzungs'
'Überschuss_'
'Übers'
'Übereinkunft_'
'° _'
'}} _'
'{'
'zza_'
'zynisch'
'zwölf_'
'zweite'
'zw'
'zuzug'
'zusätzliche'
'zustellen_'
'zustande_'
'zurückz'
'zurecht'
'zunichte_'
'zukünftig'
'zufrieden'
'zones_'
'zon'
'zle'
'zk'
'zivile_'
'zis'
'zio'
'zil'
'zig_'
'zierungs'
'ziel'
'zial'
'zersch'
'zeitlich'
'zeitge'
'zauber'
'yo_'
'xy'
'xt'
'wäh'
'wäch'
'wunderschönen_'
'wun'
'writ'
'worauf_'
'wooden_'
'wm'
'witnessing_'
'witnessed_'
'withdraw_'
'wissens'
'wirtschaftspolitische'
'wirtschaftliches_'
'wirt'
'winner_'
'wind'
'willig_'
'width_'
'widerspiegelt_'
'widen'
'wi_'
'whol'
'westlich_'
'wertvollen_'
'wertig'
'werten_'
'wert'
'weltweite'
'welle'
'welcomed_'
'weiß'
'weich'
'wed_'
'weakened_'
'wartet_'
'warned_'
'wan_'
'wahrgenommen_'
'wage'
'wachstums_'
'völ'
'vorzus'
'vorteil'
'vorschlägt_'
'vorschläge_'
'vorsch'
'vorr'
'vorherige_'
'vorgestellt_'
'vorgegeben'
'vorgeb'
'volks'
'void'
'visits_'
'visitor_'
'violations_'
'violation_'
'ville_'
'viewed_'
'view'
'vierte'
'viel'
'vet'
'vest'
'veröffentlichten_'
'verwu'
'verwirklichen_'
'verwendeten_'
'verw'
'vertraut_'
'vertrauen_'
'vertrag_'
'verteilen_'
'verstärkte_'
'versi'
'verschmutz'
'versammlung_'
'vernichte'
'verlä'
'verliehen_'
'verheerende'
'vereinfacht'
'verde'
'verbreiteten_'
'verbreite'
'verbrauche'
'verbrauch'
'verbl'
'verbindung'
'verarbeitung'
'verantwortungsvolle'
'verabschieden_'
'veness_'
'vegetables_'
'vary_'
'variant'
'valley_'
'uß_'
'uß'
'uu'
'utzte'
'utilit'
'uten_'
'usu'
'usch'
'uropa_'
'urg_'
'uran'
'ural'
'upt'
'upgrading_'
'upgraded_'
'updates_'
'unvermeidlich_'
'unum'
'unterscheidet_'
'unterliegt_'
'unterliegen_'
'untereinander_'
'unmittelbare_'
'unm'
'unli'
'unl'
'unkt'
'unkonventionelle'
'universelle'
'uniti'
'unif'
'ungsmaßnahmen_'
'ungsfrei'
'ungleiche'
'unfa'
'unein'
'undertaking_'
'undertaken_'
'understandable_'
'underp'
'undermining_'
'uncon'
'unch'
'unbekannte'
'umu'
'umi'
'umer'
'umbu'
'ult_'
'uli'
'ulen'
'ule'
'uldig'
'uku'
'uin'
'uh_'
'uft_'
'uen'
'uble_'
'uat'
'tüm'
'tück'
'tü'
'tät'
'ture'
'tune'
'tue'
'tua'
'trum'
'truck_'
'trocken'
'triggered_'
'trigger_'
'treffen'
'treat'
'trea'
'traum'
'transportier'
'transnational_'
'translated_'
'transform_'
'traditionell_'
'traditionally_'
'tradable_'
'tract'
'tour'
'tos_'
'tos'
'tm'
'tlin'
'tliche_'
'tipp'
'tious'
'tighte'
'tight'
'thriv'
'threatening_'
'thread_'
'thought'
'thick'
'therapie'
'theoretische'
'themes_'
'thanking_'
'testen_'
'terie'
'tends_'
'tel'
'teilzunehmen_'
'teilig'
'tehen_'
'teh'
'technisch_'
'teach_'
'td'
'tausende_'
'tatsächliche_'
'tation_'
'tate'
'tat_'
'tank_'
'tangible_'
'tande'
'tand_'
'tam'
'tai'
'tage_'
'taatliche'
'sympath'
'switched_'
'swei'
'swee'
'suspicion_'
'surveys_'
'superb_'
'summ'
'suit_'
'suicide_'
'sui'
'subsid'
'stürzen_'
'stärkt_'
'städte'
'strukturen_'
'struggle'
'strongest_'
'stressed_'
'strengths_'
'streng'
'strecke'
'streben_'
'strategisch'
'stolz_'
'stischen_'
'stete'
'stern_'
'steri'
'stereo'
'stepp'
'stens_'
'stellten_'
'stehende_'
'stecken_'
'state'
'starb'
'stands'
'stair'
'stagnation_'
'stad'
'stabilen_'
'ssions'
'ssin'
'ssal'
'squa'
'squ'
'späte'
'spreche_'
'sprach'
'spo'
'spite_'
'sphere_'
'spezifisch'
'speziellen_'
'specific'
'spare_'
'spann'
'soziales_'
'south'
'somewhere_'
'sociali'
'sno'
'smart'
'slu'
'slogan'
'slightly_'
'sleeping_'
'sku'
'ska_'
'sive_'
'situationen_'
'sions_'
'sinkende'
'simulation_'
'signat'
'sicht'
'sicherer_'
'shu'
'shortly_'
'shoe'
'shelter'
'shell_'
'shaping_'
'shaped_'
'shame'
'shake'
'sexuellen_'
'sex_'
'sessions_'
'separation_'
'separate'
'sep'
'sentence_'
'sel_'
'sektors_'
'sehe'
'sees_'
'sections_'
'secondary_'
'secara_'
'script'
'schützt_'
'schö'
'schwächen_'
'schwi'
'scht_'
'schnelles_'
'schnellere'
'schlu'
'schließe_'
'schlich'
'schic'
'schei'
'schalte'
'schaftliche'
'scare'
'sca'
'sc'
'sat_'
'santa_'
'sammeln_'
'samkeit'
'same'
'sam_'
'salt_'
'sailing_'
'sagten_'
'safely_'
'safeguard'
'saat_'
'räum'
'rät'
'räng'
'rup'
'ruled_'
'ruf'
'rud'
'rtung_'
'rounds_'
'rop_'
'rodukt'
'rod'
'robot'
'robe'
'road'
'rne'
'rmen_'
'riskier'
'riots_'
'rimi'
'rigoro'
'right'
'rid_'
'richte'
'rez'
'reveals_'
'retail'
'resum'
'resultierende'
'restrict_'
'restraint_'
'ress'
'respektieren_'
'resiste'
'resilien'
'reservations_'
'republik'
'republic'
'representing_'
'renovated_'
'rene'
'remuneration_'
'remit'
'reminiscent_'
'reminded_'
'relative'
'relationships_'
'relat'
'rejection_'
'reit'
'reine'
'reichlich'
'reha'
'regelmäßige'
'rega'
'reformist'
'reformi'
'reflecting_'
'refle'
'referendums_'
'recourse_'
'reconciliation_'
'reconcile'
'recipient'
'reci'
'rechung'
'rechen'
'recal'
'rebel'
'reasonably_'
'reap'
'ream'
'realistische_'
'reale_'
'readily_'
'rbeit_'
'rats_'
'ratione'
'rational'
'rate'
'ras_'
'ras'
'raises_'
'radar_'
'rachte'
'rach'
'race'
'rac'
'rable_'
'quotas_'
'quip'
'py_'
'py'
'pursuit_'
'punish'
'pun_'
'pull'
'psychische'
'präsident'
'protest_'
'protects_'
'pros'
'proportional_'
'prophe'
'properties_'
'prol'
'produkte_'
'produkt'
'produk'
'proceed'
'prisons_'
'printer_'
'prin'
'prevents_'
'pretty_'
'presidents_'
'preparing_'
'premium_'
'prejudice_'
'predictable_'
'prechen_'
'preach'
'prachigen_'
'poten'
'pot_'
'possession_'
'portray'
'populär'
'popularity_'
'pop'
'polo'
'poll'
'polic'
'poker_'
'pointing_'
'pocket'
'poc'
'plätze_'
'pläne_'
'pity_'
'pis'
'pir'
'pine'
'pilot'
'pi_'
'physici'
'pher'
'pharmaceutical_'
'phan'
'pha'
'pflanz'
'pets_'
'personen_'
'personali'
'permits_'
'permission_'
'perf'
'perception_'
'perc'
'pent'
'peni'
'pene'
'pemimpin_'
'pek'
'peer_'
'pedia_'
'pear'
'patr'
'pat_'
'participated_'
'partei_'
'park'
'panoramic_'
'panisch'
'panic_'
'ows_'
'owner_'
'owed_'
'owe'
'ova'
'outset_'
'outline_'
'outcomes_'
'outbreak_'
'ound'
'ots_'
'otr'
'ota'
'ossene'
'oss'
'orth'
'orte'
'orm_'
'oris'
'orientiert_'
'ori_'
'ori'
'organisieren_'
'ordnungsgemäße'
'ordert_'
'ordentliche'
'ord_'
'orbit'
'oppress'
'operator_'
'opera_'
'oot_'
'onisch'
'onat'
'omp'
'omin'
'olt'
'ole_'
'oka'
'oin'
'oid_'
'oi_'
'ohner'
'ogn'
'offset_'
'odo'
'oci'
'ochen_'
'obtaining_'
'oberste_'
'oat'
'nützliche_'
'nö'
'näh'
'näch'
'nä'
'nym'
'nutzt_'
'nutzbar_'
'nummer_'
'nuklearen_'
'nuestr'
'nted_'
'notification_'
'nostalgi'
'nomi'
'noisy_'
'noc'
'nne_'
'nna_'
'nitte'
'ning'
'nien_'
'niederländischen_'
'nia'
'ngka'
'ngi'
'ngen'
'nge'
'newspapers_'
'newsletter_'
'neue'
'netze_'
'nera'
'nel_'
'nein'
'neighbor'
'neigen_'
'nehm'
'negotiating_'
'negotiated_'
'nego'
'neg'
'ncie'
'nca'
'navi'
'nationalist_'
'nat'
'nary_'
'nant'
'nal_'
'nahezu_'
'nacht'
'nachfolgenden_'
'nac'
'müt'
'müh'
'möge_'
'mäßige'
'mäßig_'
'myster'
'mysql'
'must'
'music'
'muscle'
'mus'
'multinational_'
'multinational'
'mse'
'mpt'
'moves_'
'mouse_'
'mos_'
'moo'
'monopol'
'monitored_'
'moni'
'modula'
'modernisier'
'mme'
'mma'
'mix'
'mitzu'
'mitteilen_'
'mitte'
'mistakes_'
'mirror'
'ministeri'
'ming'
'mineral_'
'mind'
'migra'
'mie_'
'midst_'
'micro_'
'methoden_'
'mern_'
'mening'
'memba'
'melalui_'
'mel_'
'meistens_'
'mei'
'mehrfach_'
'mehrerer_'
'media'
'mechanismus_'
'meantime_'
'mbur'
'mayor_'
'mature_'
'materielle'
'master_'
'masse'
'masa_'
'market'
'marken'
'march'
'maps_'
'manufacturer_'
'manipulation_'
'manifest'
'mangelnde_'
'mangel'
'mandatory_'
'mam'
'mall'
'malig'
'mais_'
'maintain'
'mainstream_'
'magni'
'mac'
'löst_'
'läufe'
'längst_'
'läng'
'ländische'
'länd'
'lz'
'lw'
'luxuriöse_'
'luen'
'luar_'
'loud_'
'lone'
'lon'
'lokal_'
'loka'
'logisti'
'logg'
'locked_'
'lock_'
'lob'
'loaded_'
'ln'
'llung_'
'lli_'
'llen'
'lively_'
'liti'
'lis_'
'liquid_'
'liquid'
'likelihood_'
'lik'
'lighting_'
'liegenden_'
'liefer'
'licht_'
'libr'
'liberalization_'
'lian'
'liability_'
'liabilities_'
'lfe'
'level'
'lette_'
'lend_'
'leicht'
'legitimier'
'lec'
'lebenslange'
'lds_'
'ldet_'
'lava'
'lauf_'
'lauf'
'laud'
'lasse'
'lase'
'lar_'
'langjährigen_'
'langfristige'
'lamp'
'label_'
'kürz'
'künstlerische'
'kühne'
'kör'
'könnt_'
'kö'
'käm'
'kurzfristigen_'
'kurzfristige_'
'kung_'
'ktur'
'ktions'
'kräftig'
'kritischen_'
'kreis'
'kraft'
'kos'
'korrigieren_'
'korr'
'konzept'
'kontrollen_'
'kontinuierliche'
'kontaktieren_'
'kont'
'konsolidier'
'konservativen_'
'konkreter_'
'kong'
'kondi'
'komplizierte'
'kommerzielle_'
'kommen'
'kombiniert_'
'kollektiven_'
'kolle'
'knowing_'
'klingt_'
'kleines_'
'klassischen_'
'klassische_'
'klasse_'
'kl'
'kki'
'kis_'
'kins_'
'kingdom_'
'kilometers_'
'kg_'
'keys_'
'keu'
'kemajuan_'
'keinesfalls_'
'keinem_'
'keeps_'
'kb'
'kate'
'kapa'
'kalte'
'jüng'
'jährlichen_'
'just'
'jurisdiction'
'junger_'
'junct'
'judiciary_'
'judges_'
'ju_'
'jak'
'jahres'
'ié'
'izier'
'ix_'
'ives_'
'iv_'
'itten_'
'ito_'
'itis'
'ition'
'ities_'
'ista'
'iss_'
'isolated_'
'isla'
'isierte'
'isches_'
'irtschaft'
'irakischen_'
'ion'
'investitionen_'
'investigate_'
'invention'
'inv'
'interp'
'interna'
'intern'
'interinstitutional_'
'intensiven_'
'integrity_'
'integrate_'
'insurgents_'
'insure'
'insu'
'insti'
'installi'
'inspections_'
'insecurity_'
'inkl'
'inhal'
'inhaftiert'
'ings'
'influenced_'
'infi'
'inefficient_'
'industri'
'indispensable_'
'indebted'
'ind'
'incident_'
'inch_'
'inacti'
'inability_'
'improv'
'imported_'
'impede'
'impair'
'immune_'
'immo'
'immens'
'ilte'
'ilt'
'iller'
'ille_'
'ilig'
'ilfe_'
'ild_'
'iha'
'igu'
'ignoring_'
'igi'
'ight'
'ift'
'iff'
'ifel'
'iest_'
'ierende'
'iere_'
'ieb'
'ids'
'ideologi'
'icon_'
'ico'
'iche'
'ically_'
'ibe'
'iPod_'
'iPhone_'
'häufiger_'
'hängen_'
'händler_'
'hypo'
'hybrid_'
'hunger_'
'humanitäre_'
'hum'
'hub'
'hu_'
'hts_'
'htm'
'hrung'
'hrte_'
'horror'
'hop_'
'honor'
'hon'
'holdings_'
'hnung'
'hlen_'
'hir'
'hinweg_'
'hind'
'hil'
'hiking_'
'hierfür_'
'hielten_'
'hidup_'
'herzustellen_'
'herunter_'
'hert'
'herrliche'
'herr'
'heran'
'hell_'
'heli'
'heiz'
'heim_'
'heed_'
'heating_'
'heart'
'hbo'
'hazardous_'
'hause'
'harmoni'
'happi'
'handful_'
'hamper'
'halb_'
'hak_'
'guard'
'gste'
'gründlich_'
'gründet_'
'grundlegender_'
'grundlegend_'
'grouping'
'grobe'
'grip'
'grenzüberschreitenden_'
'grenzt_'
'grenze_'
'gratis_'
'graphi'
'grafische'
'gly'
'glu'
'globally_'
'globaler_'
'gliche'
'glaubt_'
'glad_'
'gipfel'
'gezielte'
'gewährt_'
'gewo'
'gewisser'
'gewidmet_'
'gewer'
'gewalt'
'gew'
'gesundheitliche'
'gestü'
'gesti'
'gestattet_'
'gestatten_'
'gesorgt_'
'gesetzgeb'
'geschwächt_'
'geschlossene'
'geschafft_'
'gesamt'
'gepfl'
'gep'
'gentl'
'genetisch'
'generating_'
'genera'
'gener'
'gemütliche_'
'gemi'
'gemessen_'
'gelegentlich_'
'gelder_'
'gekennzeichnet_'
'gefährlicher_'
'gefr'
'gebühren_'
'gebra'
'gebot'
'gebiete_'
'gebaut_'
'gases_'
'gard'
'garage_'
'ganis'
'gangs_'
'gangen_'
'gall'
'fünfzig_'
'fühl'
'fällig_'
'futures_'
'functionality_'
'fti'
'frühere_'
'freilich_'
'freedoms_'
'fraction_'
'fr'
'founding_'
'fought_'
'fossilen_'
'fortzu'
'forming_'
'formen_'
'formation'
'form'
'forgotten_'
'forge'
'forg'
'foreigners_'
'followers_'
'fol'
'flü'
'fläch'
'flood_'
'flich'
'fizier'
'fixes_'
'fitt'
'fit'
'firm'
'finali'
'film'
'file'
'fica'
'fetch'
'fet'
'festzulegen_'
'feststellt'
'fests'
'fenster_'
'felder_'
'feier'
'fehlen_'
'feedback_'
'fax_'
'favourable_'
'faszinierend'
'farms_'
'far'
'familiengeführte'
'falschen_'
'fakt'
'fache'
'ezi'
'eye'
'extr'
'extending_'
'expulsion_'
'exploit_'
'expla'
'experiment'
'existiert_'
'exhaust'
'exemption_'
'exacerbate'
'evolution_'
'eventuell_'
'evan'
'evaluate_'
'eug'
'etung'
'ette'
'etri'
'eto'
'eter_'
'etch'
'eta_'
'esten_'
'espa'
'esk'
'esen'
'erö'
'erzeug'
'erwi'
'erwecken_'
'erta'
'ersucht_'
'ersuchen_'
'erstre'
'erschw'
'ernannt_'
'ermutigt_'
'erlangt_'
'erkennbar'
'erke'
'erka'
'ergänzt_'
'ergeb'
'erge'
'erg_'
'erfolgte_'
'erfe'
'erfa'
'erbringen_'
'equi'
'equ'
'enw'
'entwicklung_'
'entstand_'
'entsprechende'
'entspannen_'
'ently_'
'entlich'
'entlassen_'
'entgegenzu'
'entgegenge'
'entertain'
'enme'
'enli'
'enjoyable_'
'engi'
'eng'
'enforce_'
'endgültig_'
'endeavour'
'enda'
'encourages_'
'enact'
'employ'
'emie_'
'ement'
'embr'
'embo'
'ember'
'embargo_'
'ellte'
'elles_'
'ella_'
'ella'
'elites_'
'eligible_'
'elektrische'
'electronic'
'elb'
'elan'
'eit'
'einzelner_'
'eint'
'einstellungen_'
'einräumen_'
'eingetr'
'eingebe'
'eilt_'
'eile'
'eight'
'eig'
'eide'
'eho'
'ehnen_'
'egte'
'effizienten_'
'effiziente_'
'eel'
'edl'
'ecken_'
'ecke'
'earnings_'
'ean_'
'eager_'
'dys'
'dt'
'dst'
'dropped_'
'dringende'
'dream'
'drau'
'drafted_'
'downward_'
'dow'
'doubled_'
'dos'
'donors_'
'donations_'
'document'
'doctrine_'
'dit_'
'districts_'
'distortion'
'distant_'
'dist'
'disruption_'
'displays_'
'dismantl'
'dish'
'disen'
'discret'
'discredit'
'diplomatische_'
'dina'
'din_'
'din'
'differentia'
'diesbezüglichen_'
'did'
'dicht_'
'dial'
'dhi'
'dha'
'dez_'
'deux_'
'deteriorati'
'detected_'
'desired_'
'descent_'
'desa'
'dero'
'derivative'
'deregulation_'
'deprived_'
'deno'
'dema'
'delivers_'
'degrees_'
'defende'
'deepening_'
'deckung'
'dec'
'debtor'
'deba'
'deadl'
'dateien_'
'databases_'
'dara'
'dan'
'damp'
'damages_'
'daf'
'dad_'
'cy'
'cult'
'cula'
'cul'
'crush'
'criticized_'
'criminals_'
'creature_'
'cow'
'counterparts_'
'counterfeit'
'council_'
'cost'
'coole'
'cool_'
'conversion_'
'convention_'
'contradict'
'contin'
'conten'
'construct_'
'constrain'
'consiste'
'considers_'
'conservation_'
'consequently_'
'confused_'
'confront'
'config'
'confi'
'conduc'
'condemn_'
'condemn'
'concludes_'
'conci'
'comprehen'
'compound'
'compli'
'complexity_'
'completion_'
'complain'
'compile'
'competing_'
'competence_'
'compari'
'compare_'
'compar'
'compa'
'communist_'
'communicate_'
'communi'
'commonly_'
'comment'
'combines_'
'college_'
'coherence_'
'coa'
'closest_'
'clinical_'
'cliff'
'cleane'
'clau'
'clara_'
'claiming_'
'ckel'
'cked_'
'citi'
'circum'
'ciones_'
'cier'
'chsen'
'chs_'
'chs'
'chri'
'chose_'
'chil'
'chief'
'chest'
'chemicals_'
'checks_'
'chauen'
'ceremon'
'cease_'
'caution_'
'catastrophe_'
'casinos_'
'cari'
'capt'
'capitals_'
'capitali'
'cano'
'cac'
'cabin'
'butt'
'bust'
'burning_'
'burn_'
'bureaucrats_'
'bull'
'broke_'
'brochure'
'bread_'
'branche_'
'bour'
'borrowing_'
'bombing'
'bombe'
'bolster'
'blocked_'
'block'
'blam'
'bl'
'biot'
'billions_'
'bias'
'bezug_'
'bewusste'
'bewert'
'bewegung_'
'bewa'
'bew'
'bevorzug'
'beu'
'bett'
'betrachtete'
'betra'
'besucht_'
'bestä'
'bestimmter_'
'besticht_'
'beso'
'beschaff'
'berufen_'
'berp'
'bereitstellen_'
'bereitet_'
'bereiten_'
'bereiche_'
'berei'
'bera'
'bemerkenswerte'
'beliebige'
'beizu'
'beis'
'behold_'
'beh'
'beginne'
'begehen_'
'began'
'befr'
'beeinträchtigen_'
'bedeutendsten_'
'beauftragt'
'bears_'
'beanspruch'
'bble'
'bay_'
'bargain'
'baltischen_'
'balcony_'
'balancing_'
'bak'
'bach'
'azi'
'aya_'
'ax_'
'avo'
'außer'
'außenpolitische'
'automo'
'automatische'
'auszur'
'auszuführen_'
'auswe'
'auslösen_'
'ausgewählt_'
'ausgest'
'ausges'
'ausgenutzt_'
'ausb'
'auft'
'aufrechterhalten_'
'aufl'
'aufkommen_'
'aufget'
'aufgebaut_'
'audit'
'auber'
'attracti'
'ats_'
'ath_'
'ater'
'astr'
'assumption_'
'assignment'
'asser'
'asia'
'ase'
'arti'
'ars'
'arrive_'
'arre'
'arme'
'arit'
'arises_'
'aris'
'architekt'
'architect'
'arche'
'arb'
'arabische_'
'appro'
'appar'
'apologi'
'anzuh'
'anzugehen_'
'anyway_'
'any'
'anxi'
'anwesend_'
'anu'
'antwortete_'
'antworten_'
'anten_'
'anteil_'
'ante'
'anstreben_'
'ansteigen_'
'ansprechen_'
'anschließen_'
'ansch'
'announce_'
'anme'
'anlässlich_'
'anl'
'angre'
'angenehm_'
'angemessenen_'
'angelegt_'
'angebliche'
'angeblich_'
'angan_'
'anderweitig_'
'andauern'
'anbelangt_'
'analysier'
'analyse_'
'amplif'
'ami_'
'amer'
'amended_'
'amb'
'alti'
'alte'
'allocat'
'allo'
'alliances_'
'alleged_'
'alleg'
'alla'
'alkohol'
'alit'
'alike_'
'alig'
'alie'
'alia'
'alg'
'ain'
'ags'
'agog'
'agent_'
'afrikanische'
'affirm'
'affe'
'advertisement'
'adventur'
'admit'
'activat'
'aco'
'accr'
'accompanying_'
'accommodati'
'abw'
'absurd_'
'abse'
'abschließen'
'abs'
'ables_'
'abl'
'abhängt_'
'abhängig'
'abgele'
'abgehalten_'
'abe'
'abandoning_'
'`_'
']]'''
'] ._'
'Zwangs'
'Zunahme_'
'Zulassung_'
'Zukunfts'
'Zivilisten_'
'Zie'
'Zh'
'Zeita'
'Zealand_'
'Zahlungs'
'Zahlung_'
'YO'
'XL'
'Würden_'
'Wünsche_'
'Wäre'
'Wurzel'
'Wri'
'Works'
'Woods_'
'Wood'
'Wolf_'
'Wol'
'Wohl_'
'Wis'
'Wirtschaftsl'
'Wind'
'Willi'
'Will'
'Wies'
'Wiederaufbau_'
'Wider'
'WiFi_'
'Wetter_'
'Werk'
'Werden_'
'Weltb'
'Weiterhin_'
'Weis'
'Weich'
'Wed'
'Wechselkurse_'
'Wechsel_'
'Wasch'
'Wars'
'Wandels_'
'Wand'
'Walt'
'Wai'
'Wah'
'Wag'
'Wachstumss'
'Wach'
'WA'
'Vorw'
'Vorfeld_'
'Volle'
'Vogel'
'Vit'
'Visual_'
'Visu'
'Vir'
'Ville'
'Villa'
'Viel'
'Vet'
'Verzögerungen_'
'Verzeichnis_'
'Verwa'
'Vertrauens'
'Versicherungs'
'Versa'
'Vermögens'
'Vermittlungs'
'Verlängerung_'
'Vergleich'
'Vergessen'
'Verfass'
'Vereinfachung_'
'Verda'
'Veranstaltungsräume_'
'Vegas_'
'Varia'
'Van'
'VAT_'
'Users_'
'Ursprung_'
'Urheber'
'Untere'
'Universum'
'Unge'
'Unbe'
'Unabhängig_'
'Un_'
'Umstände_'
'Uganda'
'UL'
'UC'
'Tätigkeiten_'
'Twin'
'Tul'
'Tuesday_'
'Treiber_'
'Treib'
'Travel_'
'Translat'
'Tradi'
'Track'
'Total_'
'Tor_'
'Tochter'
'Tob'
'Tir'
'Tibe'
'Theater'
'Text'
'Teufel'
'Territori'
'Terminal_'
'Technologie'
'Techno'
'Tanz'
'TT'
'TS'
'TEC'
'Südafrika_'
'Synchron'
'Suppo'
'Sum'
'Stütz'
'Studie'
'Strände_'
'Strat'
'Strahlung_'
'Straftat'
'Store_'
'Stock_'
'Statistik_'
'Stand'
'Stamm'
'Stalin_'
'Stagnation_'
'Spri'
'Sprech'
'Spre'
'Spl'
'Spekulation'
'Sozialversicherung'
'Sozials'
'Sozialdemokrati'
'Sou'
'Sonnens'
'Solo'
'Software'
'Soft_'
'Socialist_'
'Sno'
'Sn'
'Small_'
'Slowakei_'
'Sla'
'Sky_'
'SilverFast_'
'Sigma'
'Sicherung_'
'Sicherheitsfragen_'
'Sh'
'Seve'
'Settings_'
'Sem'
'Seen_'
'Seele_'
'Script'
'Schulungs'
'Schuld_'
'Schuh'
'Schriftsteller_'
'Schriften_'
'Schreib'
'Schiffs'
'Satellite'
'Santiago_'
'Sammlung_'
'Sale'
'Sab'
'SW'
'SV_'
'ST_'
'STA'
'SP_'
'SLR_'
'SL'
'SH'
'SD_'
'SCO'
'SCH'
'Rö'
'Routine'
'Route'
'Round_'
'Roten_'
'Rosa'
'Rod'
'Richtlinien'
'Revolution'
'Revision_'
'Reserven_'
'Repr'
'Renminbi_'
'Religio'
'Relax_'
'Reisende'
'Reisen_'
'Regulierungs'
'Registr'
'Reformp'
'Redner_'
'Record'
'Rechtsg'
'Rechtsetzung'
'Recently_'
'Read_'
'Ratsvorsitzes_'
'Rate'
'Randlage_'
'Rande_'
'Ramblas_'
'Rahmenprogramm'
'RSS_'
'RGB_'
'RA_'
'Quer'
'Quark'
'Pun'
'Prüf'
'Präsidentschafts'
'Prozent'
'Protest'
'Protection_'
'Pros'
'Promo'
'Progress'
'Programmen_'
'Prof_'
'Product_'
'Priv'
'Princes'
'Prince'
'Premi'
'Prad'
'Power'
'Pou'
'Portal'
'Polizei'
'Poli'
'Plätze_'
'Pil'
'Pie'
'Physi'
'Photos'
'Phone'
'Philosoph'
'Philadelphia_'
'Petersburg_'
'Pensions'
'Paul'
'Part_'
'Parliamentary_'
'Parlamentswahlen_'
'Parkplätze_'
'Parameter_'
'Papier_'
'Pakistani_'
'PRI'
'Ox'
'Outs'
'Others_'
'Ost_'
'Os_'
'Ori'
'Options'
'Optimismus_'
'Operationen_'
'Olive'
'Oli'
'Objektiv'
'Oberfläche_'
'OLAF_'
'OL'
'Nü'
'Nuevo_'
'Nothing_'
'Notenbanken_'
'Norm'
'Nordic_'
'Nin'
'Nieder'
'News'
'Nepal'
'Nenn'
'Nelson_'
'Neg'
'Near_'
'Nahrungsmittel'
'Nachdruck_'
'NS_'
'NRO_'
'NOT'
'NE_'
'NB'
'Müll'
'Mä'
'Mut'
'Music_'
'Motors'
'Monte_'
'Monday_'
'Mitter'
'Mittelschicht_'
'Mitarbeitern_'
'Ministeri'
'Mine'
'Militar'
'Milan_'
'Migrations'
'Miet'
'Mexik'
'Metall'
'Meta'
'Meinungsäußerung_'
'Meines_'
'Meilen'
'Mehrere_'
'McCa'
'Maz'
'Maximum_'
'Mauer_'
'Master_'
'Masse_'
'Maschine_'
'Marke_'
'Mang'
'Malta_'
'MIL'
'MC'
'M5'
'Lösch'
'Lux'
'Lunch'
'Luggage_'
'Lud'
'Lot'
'Lor'
'Lohn_'
'Lohn'
'Lock'
'Loca'
'Lizenz_'
'Literatur_'
'Linien_'
'Line_'
'Lind'
'Liikanen_'
'Lich'
'Liberalen_'
'Letzte'
'Leonardo_'
'Leica_'
'Leh'
'Lega'
'Lebensst'
'Lebensqualität_'
'Learn_'
'Las'
'Lar'
'Landschaft_'
'Landes'
'Lan'
'Lama'
'Lai'
'Lager_'
'Laden_'
'Lad'
'Kürz'
'Königs'
'Kämpfe_'
'Kurse'
'Kub'
'Kräften_'
'Kro'
'Kreditgeber_'
'Krankenh'
'Kraftstoff'
'Korr'
'Kopie'
'Konservativen_'
'Kompon'
'Komplettpreise_'
'Komp'
'Kohäsion'
'Kohlenstoff'
'Kohle_'
'Knoten_'
'Kn'
'Klon'
'Kleid'
'Kis'
'Kinders'
'Kin'
'Ket'
'Kenya_'
'Kennzeichnung'
'Kathedrale_'
'Jugoslawien_'
'Jon'
'Jobs_'
'Jin'
'Jh'
'Jane'
'Jam'
'Jacuzzi_'
'JA'
'Italia'
'Investi'
'Inve'
'Intelligen'
'Intellektuelle'
'Integrität_'
'Instabilität_'
'Insp'
'Insofern_'
'Impfung'
'Imperial'
'Imm'
'Ice'
'INI_'
'ICA'
'Höhepunkt_'
'Händen_'
'Hurri'
'Hungers'
'How'
'Hos'
'Homo'
'Holocaust_'
'Holl'
'Hold'
'Hoffnungen_'
'Hochschule'
'Hilton_'
'Hillary_'
'Hierzu_'
'Hier'
'Hes'
'Heran'
'Hence_'
'Help_'
'Helm'
'Heimatl'
'Heads_'
'Haushalts_'
'Hauptb'
'Hast'
'Hans_'
'Halle_'
'Hall'
'HP_'
'Gü'
'Göteborg_'
'Gui'
'Greenspan_'
'Greater_'
'Grad'
'Gr'
'Gordon_'
'God'
'Goals_'
'Gn'
'Gleichheit_'
'Gleiche'
'Glaubens'
'Gespräch'
'Gesellschafts'
'Gesan'
'Gerät_'
'Gere'
'Gerade_'
'Gepäck'
'Geno'
'Geni'
'Gemüse'
'Gelegenheiten_'
'Gelds'
'Gegenzug_'
'Gegen_'
'Gefähr'
'Gefangenen_'
'Gebühr_'
'Game'
'Gam'
'Gad'
'Gabriel'
'Gab'
'GR'
'Fünfte'
'Further_'
'Furcht_'
'Funktionieren_'
'Fuji'
'Fris'
'Friedensprozess_'
'Fremd'
'Freib'
'Freedom_'
'Four_'
'Fotokopiereinrichtungen_'
'Fotograf'
'Fond'
'Fon'
'Fokus_'
'Flüchtlingen_'
'Flughafen'
'Fluggesellschaften_'
'Fli'
'Flexi'
'Fleisch'
'Fitness_'
'Fischereipolitik_'
'Finanzsystems_'
'Finanzminister_'
'Finanzau'
'Fertig'
'Fernseher_'
'Fehlen_'
'Features_'
'Fantas'
'FR'
'FDI_'
'FARC_'
'Extremisten_'
'Extrem'
'Expo'
'Exi'
'Excel_'
'Evolution_'
'Events_'
'Event_'
'Europäisches_'
'Eth'
'Ess'
'Erö'
'Erweiterungs'
'Ersch'
'Eropa_'
'Ermittlung'
'Erla'
'Erkrankung'
'Ericsson_'
'Erfüllung_'
'Erfolgs'
'Erdöl'
'Episode'
'Enth'
'Enron_'
'Enl'
'Enk'
'Eng'
'Eliten_'
'Elektronik'
'Elektro'
'Eisen'
'Eis'
'Einzelh'
'Einkaufss'
'Einhei'
'Einfuhr'
'Einf'
'Einerseits_'
'Einb'
'Eigenschaft_'
'Eigenheim'
'Edin'
'Eden_'
'Eck'
'Easy_'
'ESS'
'ENT'
'Dörfer'
'Dutzend_'
'Drive'
'Drittstaaten_'
'Drei'
'Draghi_'
'Dow_'
'Dou'
'Dominion_'
'Dominica'
'Dokument'
'Doc'
'Diktator'
'Digi'
'Dienstes_'
'Did'
'Dick'
'Dha'
'Dez'
'Dev'
'Demand_'
'Defi'
'Days_'
'Dan_'
'Damals_'
'Dach'
'DR_'
'DR'
'DPJ_'
'DEL'
'DB'
'DAM'
'Crystal_'
'Croatia_'
'Cri'
'Court'
'Could_'
'Corr'
'Conver'
'Contact_'
'Consequently_'
'Conc'
'Comple'
'Commerce_'
'Commander_'
'Coll'
'Coffee_'
'Cocktail'
'Choose_'
'Chirac_'
'Chip'
'Chechnya_'
'Chat_'
'Charlie_'
'Champs_'
'Chai'
'Centr'
'Cell'
'Cath'
'Carr'
'Carmen_'
'Cari'
'Cala'
'CL'
'Büro_'
'Büchern_'
'Bäume_'
'By'
'Business'
'Bundesrepublik_'
'Bundeskanzlerin_'
'Building_'
'Buck'
'Brüder_'
'Bruttoinlandsprodukt'
'Bruch'
'Brown_'
'Bridge_'
'Brea'
'Brandenburg'
'Bour'
'Borde'
'Bonus_'
'Bonn_'
'Bomb'
'Bog'
'Bob'
'Blut_'
'Bildungss'
'Bilde'
'Bibliotheken_'
'Bh'
'Bezeichnung_'
'Bewe'
'Bevölkerungen_'
'Bevor_'
'Between_'
'Betriebssystem_'
'Betrachtung_'
'Bestände_'
'Bestellung_'
'Beste_'
'Bestand'
'Besser'
'Beschränkungen_'
'Beruf'
'Berechnung_'
'Berater_'
'Bem'
'Bell_'
'Beli'
'Belgian_'
'Bekenntnis_'
'Bekannt'
'Behinderte'
'Begriffe_'
'Begleiter'
'Beg'
'Befür'
'Beck'
'Bearbeit'
'Bath_'
'Barrier'
'Baj'
'Bac'
'BSE_'
'BERLIN_'
'BD'
'B6_'
'Award'
'Automobilindustrie_'
'Ausz'
'Auswahl'
'Austritt_'
'Australian_'
'Austin_'
'Ausstellung_'
'Ausstellung'
'Ausschluss_'
'Aussagen_'
'Aussage_'
'Ausrüstung_'
'Ausbr'
'Ausblick_'
'Ausbildungs'
'Ausarbeitung_'
'Augenblick_'
'Aufwertung_'
'Aufl'
'Aufg'
'Atlantik'
'Astro'
'Ass'
'Asp'
'Arzneimittel_'
'Arth'
'Arr'
'Arms'
'Armenia_'
'Armeni'
'Arme'
'Archiv'
'Arbeitsplatz_'
'Arbeitsplatz'
'Arbeitnehmern_'
'Arbeitnehmer'
'Applikation'
'Appl'
'Appart'
'Appar'
'Apart_'
'Apa'
'Any'
'Anschlag_'
'Ansch'
'Anreiz_'
'Anr'
'Anpassungs'
'Ano'
'Annäherung_'
'Anne'
'Anmeld'
'Anhang_'
'Angabe_'
'Anderson_'
'Anbieter_'
'Analysen_'
'Anal'
'Amerikanern_'
'Alon'
'Algeria_'
'Alf'
'Alc'
'Albu'
'Aktienm'
'Ahmadinejad_'
'Afri'
'Aff'
'Aero'
'Admi'
'Acro'
'Acqu'
'Access'
'Abänderung'
'Abw'
'Absicherung_'
'Abschwung'
'Absa'
'Abkommens_'
'Abbas_'
'ASE'
'AN_'
'AND_'
'AL_'
'ALDE_'
'AKVIS_'
'? '
'>'
';'
'91_'
'89_'
'82_'
'240_'
'204'
'1982_'
'1973_'
'1948_'
'18th_'
'177'
'175'
'1701_'
'160'
'128_'
'/-_'
'. ({{_'
'*_'
'**'
')]'
''']]'
'%) _'
'#_'
'">'
' �_'
' – _'
' =='
' "._'
' ", _'
'’ – _'
'— _'
'ע'
'өз'
'і_'
'ю'
'х_'
'то'
'т_'
'ри'
'про'
'ор'
'на'
'мо'
'ль'
'лы'
'к_'
'ин'
'ем'
'ве'
'ο_'
'μ'
'ž_'
'ši'
'še'
'Č'
'ć_'
'ützen'
'ütz'
'üt'
'ürzt'
'ürd'
'üllt_'
'ügen_'
'üchter'
'übrig_'
'üblicherweise_'
'überzeugend_'
'überwältigende'
'übertrag'
'überschuss_'
'überraschen'
'übermitteln_'
'überla'
'übergeben_'
'überarbeitet'
'ü'
'ør'
'öß'
'öt'
'örte'
'ört_'
'örper'
'örigkeit_'
'örigen_'
'örder'
'öpf'
'öne'
'ökonomisch'
'ökologischen_'
'ökologische_'
'ök'
'öhn'
'ño'
'és'
'éo'
'ées_'
'ça'
'äßig_'
'ären'
'ängt_'
'änen_'
'älle_'
'ähnliches_'
'ächtnis'
'ál'
'Übertr'
'Übel'
'Äthiopien_'
'Ähnlich'
'» | _'
'»'
'}: _'
'|''_'
'zügig_'
'zähl'
'zyklus_'
'zwing'
'zweckmäßig'
'zwanzig_'
'zuzus'
'zuwei'
'zuw'
'zutage_'
'zukünftigen_'
'zuha'
'zugeg'
'zugeben_'
'zona_'
'zn'
'zim'
'zierte'
'zielle'
'ziehung'
'zeug_'
'zessi'
'zens'
'zahlreicher_'
'ystemen_'
'yss'
'yn_'
'yle'
'yl'
'yh'
'yen_'
'ycl'
'xio'
'würdig'
'wünschte'
'wä'
'wunderbare'
'worm'
'womöglich_'
'wiss'
'wished_'
'wische'
'wirkungs'
'wirkungen_'
'wirksamere'
'wirksamer_'
'winzige'
'winds_'
'winding_'
'wiederholte'
'wid'
'wheel'
'wesentlicher_'
'werte'
'werk'
'wenigstens_'
'wen_'
'weithin_'
'weil'
'weigert'
'wehr'
'wechselt'
'wechseln_'
'wechsel_'
'websites_'
'wear_'
'wear'
'wd'
'watched_'
'wast'
'warrant_'
'warnen_'
'ware'
'wandeln_'
'wandel'
'waktu_'
'wak'
'wag'
'vu'
'vs'
'vre'
'vot'
'vorste'
'vorsichtig'
'vorsehen_'
'vorläufige'
'vorliegende_'
'vorliegen_'
'vorgez'
'vorgehen_'
'vorbe'
'voraussichtlich_'
'volunteer_'
'volle'
'vo_'
'vital'
'visual_'
'visiting_'
'veterinar'
'vessel_'
'verzeichnet'
'verzeichnen_'
'verwunde'
'verwi'
'verweigern_'
'verwalten_'
'verursachten_'
'verursachte_'
'vertrieb'
'vertrau'
'vertr'
'verteidig'
'verstärkten_'
'verständ'
'versprechen'
'versehen'
'verschli'
'verschlechtert'
'verschl'
'verpflichtend'
'vernünftig_'
'vermute'
'vermis'
'verlängert_'
'verlorene'
'verle'
'verlangsamt_'
'verla'
'verkündet_'
'verknüpft_'
'verhäng'
'verhältnis_'
'vergangen'
'verfüg'
'verbundene_'
'verbringen_'
'verbreitete_'
'verbot_'
'verbot'
'verbi'
'verbal'
'verb'
'verantwortlichen_'
'verans'
'verab'
'vede'
'vate'
'varied_'
'valued_'
'vall'
'validate'
'vacuum_'
'vaccination_'
'uver'
'utz'
'uts_'
'utm'
'utiliz'
'usst'
'ussi'
'usr'
'usion'
'user'
'usan'
'ursprüngliche_'
'uropäischen_'
'urh'
'urges_'
'urge'
'ura_'
'upload_'
'upholding_'
'uo'
'unzulä'
'unwilling_'
'unwi'
'unverzüglich_'
'unverzichtbar_'
'unus'
'untr'
'unterz'
'unterstreicht_'
'unterschr'
'unterrichte'
'unternehme'
'unterhalt'
'unterb'
'unsu'
'unsicheren_'
'unsicher'
'unse'
'unschuldige'
'unsa'
'unres'
'unr'
'unnecessary_'
'unle'
'unktion'
'unjust'
'universali'
'unit'
'union'
'unified_'
'ungspro'
'ungsge'
'ungsan'
'ungl'
'ungene_'
'unequ'
'underw'
'undertakings_'
'underli'
'unbest'
'umgehend_'
'umgeb'
'ulation'
'ulan'
'uhig'
'ufung_'
'ufte'
'ufs'
'udi'
'uche'
'uc_'
'töten_'
'té_'
'tätige_'
'tätig'
'tägliche_'
'typischen_'
'typische_'
'typische'
'typen_'
'turn'
'turm_'
'tungs'
'tts'
'ttl'
'tters'
'tse'
'trü'
'truktur'
'troubled_'
'troll'
'tril'
'tribunal'
'trenn'
'trauma'
'trategie_'
'trate'
'trap_'
'transpos'
'transmitted_'
'trail'
'trade'
'toxic_'
'tower_'
'towels_'
'tot_'
'tonn'
'tnis'
'tne'
'tles'
'tisa'
'tionali'
'tiny_'
'timely_'
'tile'
'tige'
'tide_'
'tics_'
'tically_'
'tical'
'tial_'
'tial'
'thro'
'thou'
'thirty_'
'thinks_'
'therapy_'
'thee_'
'teru'
'tern_'
'termasuk_'
'terb'
'tep'
'tension_'
'tener'
'tende'
'tena'
'temptation_'
'tempora'
'tempo_'
'telling_'
'telecommunications_'
'tche'
'tch_'
'taucht'
'tati'
'tapi_'
'tane'
'tain_'
'tailored_'
'tail'
'tags'
'tac'
'tab_'
'szi'
'szen'
'systematische_'
'sys_'
'synthesi'
'synchroniz'
'swor'
'svoll'
'sverfahren_'
'suspect'
'survey_'
'surge_'
'suprem'
'suppressi'
'supplier_'
'supplied_'
'supervisor'
'supermarkets_'
'suns'
'sunnitische'
'sumber_'
'suche_'
'successor_'
'substanzielle'
'subst'
'subsidiz'
'subsidiar'
'subjects_'
'stät'
'stärkeren_'
'stärke'
'stupid_'
'strom_'
'strive_'
'strik'
'stric'
'strengere'
'strebt_'
'stream'
'strat'
'strand'
'strahl'
'strafrechtlich'
'stoßen_'
'ston'
'stin'
'stim'
'still'
'stil'
'stige'
'steuern_'
'stes_'
'sten'
'stellend_'
'stel'
'steile'
'steckt_'
'stec'
'stays_'
'statute_'
'starv'
'starters_'
'starkes_'
'standen_'
'standardis'
'stakeholder'
'stabili'
'stab'
'staats'
'staatlich_'
'staate'
'sste'
'ssta'
'sst'
'sserung'
'ssenen_'
'ssene_'
'ssend'
'ssed_'
'srecht'
'sre'
'sr'
'squeeze_'
'sque'
'sprin'
'spreading_'
'spra'
'spoil'
'spirit'
'spends_'
'spell_'
'specialist_'
'speci'
'speaks_'
'spatial'
'sozialistische'
'sos'
'sorti'
'sorry_'
'sore'
'sooner_'
'sont_'
'sonder'
'sollt'
'solide_'
'solid'
'sold'
'solar_'
'soeben_'
'socially_'
'socialism_'
'smokers_'
'slos'
'slim'
'slide_'
'slee'
'sl'
'skri'
'skill_'
'skill'
'skiing_'
'sket'
'skepticism_'
'skat'
'sir_'
'sir'
'sip'
'sins'
'simul'
'silver_'
'sika'
'sik'
'signals_'
'sights_'
'sichtlich_'
'sichtbar_'
'sible_'
'sian_'
'sia_'
'sia'
'shutt'
'show'
'shortc'
'shores_'
'shi'
'she'
'shal'
'sfe'
'seu'
'setzung_'
'set'
'serv'
'sentiment_'
'sensi'
'sensation'
'sends_'
'sende'
'sement'
'seltene'
'seiner'
'sebuah_'
'sebe'
'sco_'
'scienti'
'schätzungsweise_'
'schwerwiegende'
'schweigen_'
'schwank'
'schung_'
'schulden'
'schuh'
'schreib'
'schottische'
'schnitt'
'schneide'
'schn'
'schmerzhaft'
'schloss_'
'schlechteste'
'schlechter_'
'schle'
'schickt'
'schicken_'
'schenken_'
'schem_'
'scheinlich'
'scheinbar_'
'scen'
'scarc'
'scan'
'sber'
'satu_'
'satisfactor'
'sani'
'sang'
'sanct'
'sample_'
'sal_'
'saja_'
'sahen_'
'sacrifice_'
'ränk'
'rzt_'
'rungen_'
'ruk'
'ruhiger_'
'ruhige_'
'ruhe_'
'ruct'
'rth'
'rro'
'royal'
'ron_'
'rojekt'
'roi'
'rogramm'
'rocket'
'rli'
'rla'
'rke_'
'rk_'
'riti'
'riskante'
'risik'
'risen_'
'ringt'
'rine'
'rily_'
'rigid'
'rift_'
'riff'
'rien_'
'ried'
'riding_'
'rice_'
'rgen_'
'revolutionäre'
'reviv'
'revis'
'rever'
'reve'
'reten_'
'resur'
'restrictive_'
'restr'
'ression'
'respekt'
'resorts_'
'resolving_'
'reserven_'
'reserv'
'repressive_'
'reporte'
'reor'
'reng'
'rende'
'relies_'
'relaxed_'
'relaxation_'
'rej'
'reitung'
'reiterate_'
'reiten_'
'reise'
'reiches_'
'reichende'
'reibung'
'regulierung'
'regrettabl'
'registrierte'
'registriert_'
'regiert_'
'regieren'
'regel'
'refusing_'
'reform'
'recurr'
'recover'
'recording'
'recipe_'
'rechtliche'
'rechtfertigen_'
'rechnung'
'recap'
'reasoning_'
'realized_'
'reaches_'
'rdin'
'raus'
'ratified_'
'rase'
'rasant'
'rarely_'
'rapi'
'ramp'
'ramm'
'rale'
'ral'
'rak'
'rail'
'rage'
'raff'
'radiation_'
'rade'
'ques_'
'query_'
'quellen_'
'quarte'
'quantitativen_'
'qualifiziert'
'purely_'
'puls'
'pull_'
'pulat'
'publish_'
'public'
'pts_'
'ptic'
'psychiatris'
'pré'
'proxy_'
'provinc'
'proto'
'protests_'
'protecti'
'protagonist'
'propriet'
'propo'
'prope'
'pron'
'promptly_'
'proliferation_'
'projected_'
'programm'
'prognos'
'profitability_'
'profit'
'profi'
'proclaimed_'
'problemlos_'
'prinzipie'
'primäre'
'pricing_'
'pric'
'pretext_'
'prediction'
'precedent_'
'precautionary_'
'preca'
'ppo'
'pping_'
'pper_'
'powered_'
'potenziell_'
'potato'
'pot'
'postponed_'
'postpone'
'positioned_'
'porte'
'por'
'poorly_'
'politischem_'
'polariz'
'pod'
'plum'
'plot'
'plo'
'plai'
'plag'
'placing_'
'pita'
'pit_'
'piscin'
'pipe'
'pin_'
'pilla'
'piele_'
'pie_'
'pian'
'pia'
'photograph_'
'pfer'
'pfen_'
'pf_'
'petition_'
'pers_'
'peripheral_'
'penu'
'pende'
'peg'
'pedestrian_'
'patron'
'paths_'
'patent'
'patch_'
'passport_'
'passive_'
'passiv'
'passionate'
'partnerschaftliche'
'participating_'
'parl'
'parent_'
'paraly'
'paradi'
'pap'
'pang'
'pad_'
'packaging_'
'oxi'
'overlooked_'
'overha'
'outsourc'
'outlook_'
'outlined_'
'outlet'
'outf'
'outd'
'ount'
'ounce'
'oul_'
'oui'
'oud_'
'otis'
'ote_'
'osten_'
'osk'
'orr'
'origins_'
'orient'
'organisms_'
'orf'
'ordne'
'orat'
'orang_'
'oran_'
'optimize'
'optimism_'
'optimier'
'optical_'
'oppo'
'opoulo'
'opol'
'oph'
'operators_'
'openness_'
'oon_'
'onist'
'onic'
'ones'
'ond_'
'ologis'
'ollst'
'oku'
'oing_'
'oid'
'ogramm'
'ogg'
'ofs_'
'offene'
'oda'
'occup'
'observer_'
'observe_'
'oberh'
'oberfläch'
'obere'
'oasis_'
'nütz'
'nördlichen_'
'nächstes_'
'nwe'
'nver'
'nur'
'nungen_'
'null'
'ntwicklung_'
'nswert_'
'nstein_'
'nsh'
'nqu'
'notorious'
'normali'
'norm'
'nominat'
'nme'
'nlage'
'nkt_'
'nkt'
'nka'
'nist'
'nineteenth_'
'nifi'
'niert'
'niederge'
'nian'
'nevertheless_'
'neueste_'
'netzwerk'
'nest'
'nese_'
'nern_'
'neo'
'nente'
'neiden'
'neglect'
'neben'
'ndt'
'nds'
'ndr'
'ndlich'
'ndige'
'ndet_'
'nchi'
'nationales_'
'nas_'
'nas'
'nano'
'nami'
'nam'
'nal'
'nad'
'nachweis'
'nacht_'
'nachhaltiger'
'mé'
'mäßigen_'
'mächte_'
'muy_'
'muti'
'murdered_'
'murder'
'mund'
'multilaterale'
'mst'
'motive'
'mot'
'mortgages_'
'morph'
'morat'
'moralischen_'
'monatlich'
'molecul'
'modu'
'modernization_'
'modernis'
'modernes_'
'mobile'
'mmungen_'
'mmt_'
'mmern_'
'mmend'
'mmen_'
'mium_'
'mittlere'
'misleading_'
'miracle_'
'mins'
'minded_'
'mig'
'mh'
'mexikanische'
'metr'
'method'
'metal_'
'menya'
'menta'
'menschen'
'menge'
'meme'
'melden_'
'meister'
'mechanismen_'
'mba_'
'maximize_'
'maximal'
'mau'
'mathematics_'
'massa'
'mask_'
'marriage_'
'marginali'
'margin_'
'marble_'
'mann'
'manipulier'
'mangelnde'
'manc'
'managers_'
'malt'
'maler'
'maker_'
'maj'
'magi'
'maga'
'mad'
'macro_'
'mache'
'läßt_'
'läufig'
'lze'
'lying_'
'lution'
'lut'
'lust'
'lush_'
'lungs'
'luck'
'ltungs'
'lte'
'lous_'
'lokaler_'
'lohnt_'
'logistics_'
'logie_'
'llusion'
'llschaft'
'lls_'
'llel'
'live'
'listened_'
'lische'
'lio'
'link'
'linien_'
'lings_'
'liness_'
'lige'
'lifetime_'
'ließ'
'lien'
'liebe'
'licensing_'
'liberat'
'liberalisi'
'liberali'
'liberalen_'
'liberale'
'liat'
'lh'
'lgen'
'letztendlich_'
'letz'
'lern_'
'lep'
'lens_'
'lengthy_'
'lender'
'lem_'
'leite'
'leistungs'
'leh'
'left'
'leas'
'lding_'
'lden'
'laying_'
'laureate'
'laundry_'
'laufende'
'laser_'
'laptop_'
'landwirtschaftlichen_'
'landschaft_'
'lana'
'lakes_'
'lah_'
'lage'
'ladi'
'lade'
'lacking_'
'käme_'
'kwa'
'kw'
'kurzen_'
'kurse_'
'kup'
'kunden'
'kund'
'kultur_'
'kula'
'kua'
'ktr'
'ktivi'
'ksh'
'kreuz'
'kret'
'kratisch'
'krati'
'krank_'
'kow'
'kostenfreien_'
'kostenfreiem_'
'koreanische'
'konzer'
'kontinentale'
'konstitutionelle'
'konservative'
'komplizierten_'
'komplexen_'
'kompet'
'kompakt'
'komfortabel_'
'kolonial'
'kolo'
'koll'
'kok_'
'kod'
'knappe'
'kluge'
'klinische'
'klassische'
'klare'
'klapp'
'kka'
'kische'
'kilometre'
'kid'
'kf'
'kett'
'kerja_'
'kere'
'kenn'
'kehr_'
'kehr'
'kd'
'kategori'
'kanische_'
'kand'
'kamera'
'kala'
'kal'
'jö'
'justification_'
'juristische'
'jung'
'jun'
'journalist_'
'journal'
'jou'
'join'
'jeu'
'jeni'
'jeglicher_'
'jan'
'izi'
'iza'
'ix'
'iver'
'ivat'
'iva'
'ité_'
'itä'
'itz'
'itts'
'itet_'
'ita_'
'istung'
'istic_'
'isti'
'ister_'
'issuing_'
'ison_'
'isolat'
'islamistische'
'islamische_'
'irrev'
'irr'
'irgendeiner_'
'ires_'
'irc'
'ipp'
'iplin'
'ipe'
'ios_'
'ionary_'
'inviting_'
'investasi_'
'invasion_'
'intuitive'
'intra'
'intolera'
'interview_'
'interventions_'
'interrupt'
'interne'
'internationally_'
'interior_'
'interg'
'interessant_'
'interaktive'
'intera'
'intensive'
'intensiv_'
'intelligente_'
'inte'
'intak'
'inta'
'int'
'instances_'
'inspiri'
'inspectors_'
'insofern_'
'insist'
'inse'
'inquir'
'inneren_'
'innehat'
'inne'
'injection'
'inhibit'
'inhaltlich'
'inh'
'infra'
'inflict'
'infectious_'
'infe'
'inex'
'inevitably_'
'iness_'
'inen_'
'ineffiziente'
'industriellen_'
'industrialis'
'indische_'
'indirect_'
'indication_'
'incur'
'incorrect'
'incorporate_'
'inclusive_'
'incl'
'incapable_'
'inca'
'inat'
'inan'
'impl'
'imperial'
'impedi'
'immigrant_'
'ime'
'imba'
'ima_'
'illnesses_'
'ilie'
'iken_'
'ignor'
'igli'
'igende'
'ifor'
'ieß'
'iev'
'iess'
'iens_'
'iehungs'
'iege'
'ieg'
'ied'
'ido_'
'idio'
'identification_'
'identifi'
'ideale'
'idad_'
'icial'
'icher'
'icate'
'ibility_'
'ibi'
'iba'
'iati'
'iat'
'iali'
'hübsch'
'höhe'
'höf'
'höchste'
'hö'
'häus'
'hw'
'hus'
'hurr'
'hunt'
'hospitals_'
'hos'
'hors'
'homo'
'homeland_'
'holt'
'hohes_'
'hochrangige'
'hmig'
'hmen_'
'hinein_'
'hinein'
'hija'
'highway_'
'herz'
'hervorrufen_'
'hervorragende'
'herkömmlichen_'
'herausf'
'hemm'
'heb'
'heav'
'heated_'
'headlines_'
'header'
'headed_'
'hav'
'haus'
'hate_'
'hast'
'harmonise_'
'harm'
'harde'
'harass'
'hanya_'
'handlungen_'
'halte'
'haft'
'haf'
'habe'
'günstige'
'gängig'
'gänger'
'gym'
'gungs'
'gul'
'guitar'
'guide'
'guidance_'
'guest'
'guardian_'
'größerem_'
'größe'
'großartige_'
'grou'
'grenzübergreifende'
'gravierende'
'grausam'
'gog'
'god'
'gnet'
'gma'
'glücklich_'
'globalis'
'girls_'
'gion'
'ging'
'gin_'
'gin'
'giant_'
'ght'
'ggi'
'geäußerten_'
'gewöhnlich'
'gewohn'
'gewinnt_'
'gewi'
'gewec'
'gewe'
'getau'
'gesteckt_'
'gestaltete'
'geson'
'gesenkt_'
'gesellschaftlichen_'
'geschäft_'
'geschwindigkeit_'
'geschm'
'gerufen_'
'geriet'
'geri'
'gerechtfertigt_'
'gerechte_'
'gere'
'geprägten_'
'geplanten_'
'geopolitische'
'geopolitical_'
'genom'
'genen_'
'gene_'
'gende_'
'gence_'
'gemeins'
'gelöscht_'
'gelt'
'geln_'
'gelingen_'
'geldpolitische'
'geld'
'gelb'
'gehe_'
'geha'
'geh'
'gegr'
'gegner'
'gegenseitige_'
'gegenseitig'
'gefü'
'gefä'
'gefo'
'gefangen_'
'gef'
'geeignete_'
'geehrt'
'gedenkt_'
'geber_'
'gebe'
'gea'
'gau'
'gather_'
'gastro'
'gasse_'
'gaps_'
'füllen_'
'förderung_'
'fähigen_'
'fähige'
'fähig'
'furnishings_'
'funktionierende'
'fungier'
'fung'
'fundamentally_'
'func'
'fter_'
'fst'
'fs'
'früh'
'fruit'
'fru'
'fronts_'
'fristig'
'frisch_'
'freundschaft'
'freundlichen_'
'frequent'
'fragile_'
'founder_'
'foun'
'fortune_'
'fortgeschrittene'
'formulierte_'
'formali'
'formale'
'foresee'
'forecast_'
'forder'
'forci'
'font'
'folgte'
'folg'
'fold_'
'flowing_'
'flower'
'flexibler'
'flexible'
'fled'
'flavo'
'flag'
'fizi'
'fix'
'fiskal'
'fischen_'
'fisch'
'finger'
'fiction_'
'fh'
'ffnung'
'ffl'
'ffene'
'feste_'
'feiern_'
'fehlenden_'
'fec'
'featured_'
'feasible_'
'fea'
'favorite_'
'favored_'
'fau'
'fass'
'fasc'
'farbe'
'fantastische'
'fangen_'
'faire'
'fahrts'
'facilitating_'
'facilitat'
'fache_'
'fabric_'
'fab'
'exzellenten_'
'extensi'
'exquisite_'
'exposure_'
'export'
'exploration_'
'exploiting_'
'experiencing_'
'exklusiv'
'existierende'
'exert_'
'exercise'
'exempl'
'exclu'
'exchange'
'excellence_'
'even'
'ev_'
'euro'
'eu_'
'ette_'
'eting'
'ethnische_'
'eth_'
'eternal_'
'eten'
'etabliert'
'etablieren_'
'esu'
'esto'
'estig'
'esta_'
'erupt'
'erungen_'
'eru'
'erstens_'
'erstatte'
'erschl'
'errors_'
'errichtet_'
'erreich'
'erpr'
'ermächtig'
'erma'
'erläutern_'
'erleichter'
'erklärten_'
'erit'
'erische'
'eris'
'eries_'
'erholsame'
'erho'
'erh'
'ergi'
'erge_'
'ergab'
'ereich_'
'erbe_'
'erbaut_'
'erbar'
'eran'
'equip'
'equat'
'epidemic_'
'epidemi'
'envi'
'entziehen_'
'entworfen_'
'enttäuscht'
'entspr'
'entschied_'
'entscheid'
'entity_'
'entgegens'
'entfernten_'
'entfallen_'
'ente'
'entail'
'ensured_'
'enorm_'
'enl'
'enheit_'
'enh'
'engineer'
'energisch'
'endu'
'endanger'
'enba'
'employee_'
'empiri'
'empfäng'
'empfunden'
'empfind'
'empf'
'emotions_'
'emble'
'ellungs'
'ellung_'
'elf'
'elevat'
'electr'
'ej'
'eitige'
'eisung'
'eise_'
'einzust'
'einzuräumen_'
'einzurichten_'
'einzul'
'einzuf'
'einseitig'
'einhergehen'
'eingest'
'eingerichteten_'
'eingeh'
'einführen_'
'einfü'
'einbezieh'
'einbar'
'einb'
'eilen_'
'eigne'
'eigenständige'
'eigens'
'eigenem_'
'eichen_'
'ehme'
'egu'
'egg_'
'eful_'
'efi'
'effizientere'
'effizient_'
'effizien'
'effekt_'
'editor'
'eding'
'ede_'
'ecu'
'ection_'
'eck'
'echo'
'ebung_'
'ebnen_'
'eben'
'dü'
'dynamische'
'dy'
'durchsetzen_'
'durchschnittliche_'
'durchschnittlich_'
'durchgesetzt_'
'duration_'
'dumping_'
'dsch'
'dry'
'drucken'
'dron'
'drinking_'
'drift'
'dreh'
'drastisch_'
'drastic_'
'drasti'
'drag'
'dose_'
'dorf_'
'dop'
'dominiert_'
'dog_'
'divisions_'
'dividing_'
'divide_'
'divi'
'diversen_'
'distress_'
'distort'
'disso'
'dispose'
'dismissed_'
'disg'
'discre'
'discourse_'
'discourage'
'disappointed_'
'disabilit'
'diper'
'dioxide_'
'dik'
'dih'
'digkeit'
'diesbezügliche_'
'dies'
'dier'
'dib'
'diak'
'dg'
'devote_'
'devi'
'deutscher_'
'deutlichen_'
'detriment_'
'destru'
'despair_'
'designation_'
'desde_'
'derived_'
'derartiger_'
'depressed_'
'deposits_'
'deploy'
'dense'
'denounce'
'dende'
'demonstrieren_'
'demokratisch_'
'demograph'
'democrat'
'dementsprechend_'
'dell_'
'delightful_'
'delete_'
'ded'
'decor'
'declines_'
'debe'
'debated_'
'dde'
'dba'
'dauerhafte'
'dare'
'dad'
'dacht'
'cycles_'
'curtail'
'cultivat'
'culminat'
'cue'
'ctur'
'ction'
'crude_'
'critici'
'cript'
'crash_'
'cras'
'craft_'
'craft'
'cr'
'cozy_'
'couple'
'cotton_'
'cosmetic'
'correspond_'
'correct'
'corr'
'corps'
'copie'
'convince_'
'convicted_'
'convict'
'conversation_'
'controversial_'
'contribu'
'contagion_'
'contacts_'
'consult_'
'constitutes_'
'constituenc'
'constitu'
'consist'
'conquer_'
'connecting_'
'coni'
'confo'
'conflict'
'confined_'
'configure_'
'confe'
'conf'
'conciliation_'
'concentrated_'
'compre'
'compr'
'compliment_'
'complaint_'
'complain_'
'comparative_'
'common'
'commodities_'
'commission'
'commercial'
'comer'
'come'
'colonial_'
'collectively_'
'collections_'
'cola'
'cock'
'coat'
'coastal_'
'clus'
'clu'
'closure_'
'clin'
'cli'
'ckr'
'ckig'
'cket_'
'cke'
'cis'
'cinema'
'cide'
'chwe'
'chtigen_'
'chte_'
'chst'
'chrift'
'chli'
'child'
'checke'
'chas'
'charisma'
'charakter_'
'characteristics_'
'characteristic_'
'change'
'chair'
'cere'
'censorship_'
'ced'
'cce'
'cave'
'cautious_'
'cau'
'casual'
'casino_'
'carries_'
'capture_'
'captur'
'capability_'
'cap_'
'cant'
'came'
'calculat'
'cafe'
'caci'
'bürokratische'
'bösartige'
'but'
'burn'
'bureaucracy_'
'bum'
'bullet'
'builds_'
'buffer'
'buck'
'brü'
'bräu'
'browsing_'
'brothers_'
'brake'
'boxe'
'bottle'
'borrowers_'
'borne_'
'bora'
'bookings_'
'bombard'
'boli'
'boil'
'blä'
'bloße_'
'bloß'
'blocking_'
'blockiert_'
'bloc'
'bliche'
'blase_'
'birds_'
'binde'
'billig_'
'bilität'
'bilanz'
'bid_'
'bia'
'bezi'
'bezeichnen_'
'beverages_'
'beunruhig'
'bett_'
'betrü'
'beträchtliche'
'betriebe_'
'betrieb_'
'betrieb'
'betreiber'
'bete'
'besuchten_'
'bestrafen_'
'bestehender_'
'bestanden_'
'besitze'
'beside'
'besetzte'
'beset'
'beschädigt_'
'beschw'
'beschreiben_'
[...]
